{"</s>": 0, "<unk>": 1, ",": 2, ".": 3, "\u2581die": 4, "\u2581the": 5, "\u2581\"": 6, "\u2581in": 7, "\u2581of": 8, "\u2581het": 9, "\u2581is": 10, "\u2581to": 11, "\u2581van": 12, "\u2581'": 13, "\u2581en": 14, "\u2581and": 15, "s": 16, "\u2581-": 17, "\u2581n": 18, "\u2581nie": 19, "\u2581a": 20, "\u2581te": 21, "?": 22, "\u2581wat": 23, "\u2581om": 24, ":": 25, "\u2581that": 26, "\u2581was": 27, "\u2581as": 28, "\u2581hulle": 29, "\u2581ons": 30, "\u2581God": 31, "'": 32, "\u2581Jehovah": 33, "\u2581dat": 34, "\u2581for": 35, "\u2581dit": 36, "\u2581se": 37, "\u2581vir": 38, "\u2581op": 39, "\u2581sy": 40, "\u2581met": 41, "\u2581word": 42, "\u2581my": 43, "\u2581I": 44, "\u2581by": 45, "\u2581be": 46, "\u2581you": 47, "\u2581with": 48, "\u2581Die": 49, "\u2581aan": 50, "\u2581not": 51, "\u2581sal": 52, "\u2581The": 53, "\u2581on": 54, "\u2581kan": 55, "\u2581his": 56, "\u2581hy": 57, "\u2581it": 58, "\u2581are": 59, ";": 60, "\u2581Jesus": 61, "\u2581have": 62, "!": 63, "\u2581he": 64, "\u2581will": 65, "\u2581we": 66, "\u2581ek": 67, "\u2581jy": 68, "\u2581": 69, "\u2581(": 70, "\u2581from": 71, "e": 72, "\u2581na": 73, "\u2581deur": 74, "\u2581jou": 75, "\u2581In": 76, "\u2581[": 77, "\u2581hierdie": 78, "\u2581they": 79, "n": 80, "\u2581this": 81, ")": 82, "\u2581their": 83, "\u2581or": 84, "\u2581so": 85, "\u2581moet": 86, "\u2581who": 87, "\u2581can": 88, "\u2581all": 89, "\u2581at": 90, "\u2581oor": 91, "\u2581wees": 92, "ing": 93, "\u2581Dit": 94, "\u2581were": 95, "\u2581your": 96, "]": 97, "\u2581one": 98, "\u2581s\u00ea": 99, "\u2581Bible": 100, "\u2581them": 101, "\u2581hom": 102, "\u2581an": 103, "\u2581our": 104, "\u2581mense": 105, "\u2581had": 106, "\u2581uit": 107, "\u2581tot": 108, "\u2581Ek": 109, "\u2581ook": 110, "\u2581ander": 111, "\u2581do": 112, "\u2581him": 113, "\u25811": 114, "\u2581what": 115, "\u2581us": 116, "\u2581has": 117, "\u2581Maar": 118, "\u2581people": 119, "\u2581maar": 120, "\u2581toe": 121, "\u2581daar": 122, "\u2581man": 123, "\u2581baie": 124, "\u2581soos": 125, "\u2581al": 126, "t": 127, "\u2581help": 128, "\u2581.\"": 129, "\u2581As": 130, "\u2581What": 131, "\u2581when": 132, "\u2581julle": 133, "\u2581me": 134, "\u2581but": 135, "\u2581about": 136, "\u2581ges\u00ea": 137, "\u2581lewe": 138, "-": 139, "\u2581Hy": 140, "\u2581een": 141, "...": 142, "\u2581would": 143, "\u2581doen": 144, "\u2581time": 145, "\u2581A": 146, "a": 147, "\u2581En": 148, "\u2581may": 149, "\u2581meer": 150, "\u2581out": 151, "\u2581more": 152, "\u2581net": 153, "\u2581Wat": 154, "\u2581Bybel": 155, "\u2581_": 156, "\u2581It": 157, "\u2581up": 158, "\u2581hoe": 159, "\u2581been": 160, "\u2581life": 161, "\u2581maak": 162, "\u2581Hoe": 163, "\u2581her": 164, "\u2581He": 165, "\u2581Ons": 166, "\u2581did": 167, "\u2581also": 168, "d": 169, "\u2581haar": 170, "\u2581some": 171, "\u2581gebruik": 172, "\u2581which": 173, "\u2581sou": 174, "\u2581%": 175, "\u2581there": 176, "\u2581said": 177, "\u2581,\"": 178, "\u2581And": 179, "\u2581How": 180, "\u2581/": 181, "\"": 182, "\u2581kom": 183, "\u2581those": 184, "\u2581no": 185, "\u2581laat": 186, "\u2581But": 187, "\u2581many": 188, "ed": 189, "\u2581gaan": 190, "\u2581such": 191, "\u2581wil": 192, "\u2581.": 193, "\u2581into": 194, "\u2581begin": 195, "\u2581wanneer": 196, "\u2581if": 197, "\u2581tyd": 198, "\u2581want": 199, "\u2581jaar": 200, "b": 201, "\u2581than": 202, "\u2581other": 203, "\u2581Hulle": 204, "\u2581voor": 205, "er": 206, "\u2581groot": 207, "\u2581these": 208, "\u2581Israel": 209, "\u2581even": 210, "\u2581kon": 211, "\u2581w\u00eareld": 212, "\u2581This": 213, "\u2581how": 214, "\u2581world": 215, "\u2581kinders": 216, "\u2581werk": 217, "\u2581gee": 218, "\u2581onder": 219, "\u2581Witnesses": 220, "\u2581should": 221, "\u2581good": 222, "\u2581Getuies": 223, "\u2581years": 224, "\u2581page": 225, "\u2581way": 226, "\u2581day": 227, "\u2581nog": 228, "\u2581sien": 229, "de": 230, "\u2581things": 231, "\u2581could": 232, "\u2581bladsy": 233, "\u2581does": 234, "\u2581We": 235, "\u25812": 236, "\u2581work": 237, "\u2581h\u00ea": 238, "\u2581mens": 239, "\u2581For": 240, "\u2581You": 241, "\u2581nou": 242, "\u2581children": 243, "\u2581They": 244, "\u2581she": 245, "\u2581see": 246, "\u2581So": 247, "\u2581af": 248, "\u2581teen": 249, "\u2581only": 250, "\u2581dinge": 251, "\u2581over": 252, "\u2581make": 253, "\u2581waar": 254, "\u2581goeie": 255, "\u2581When": 256, "\u2581daardie": 257, "\u2581land": 258, "\u2581first": 259, "\u2581dag": 260, "\u2581gehad": 261, "\u2581its": 262, "\u2581like": 263, "\u2581because": 264, "\u2581Toe": 265, "\u2581made": 266, "\u2581earth": 267, "\u2581aarde": 268, "ly": 269, "\u2581says": 270, "\u2581dan": 271, "\u2581name": 272, "\u2581love": 273, "\u2581Paul": 274, "te": 275, "\u2581saam": 276, "\u2581If": 277, "die": 278, "\u2581geen": 279, "\u2581selfs": 280, "\u2581huis": 281, "\u2581leer": 282, "\u2581shall": 283, "\u2581Hierdie": 284, "\u2581Christian": 285, "\u2581My": 286, "\u2581then": 287, "\u2581dus": 288, "\u2581hou": 289, "\u2581Paulus": 290, "\u2581Is": 291, "\u2581Christ": 292, "\u2581omdat": 293, "\u2581eerste": 294, "\u2581before": 295, "\u2581know": 296, "\u2581Why": 297, "\u2581being": 298, "\u2581Christus": 299, "\u2581come": 300, "\u2581twee": 301, "\u2581Daar": 302, "\u2581bly": 303, "\u2581water": 304, "\u2581gemaak": 305, "\u2581now": 306, "\u2581neem": 307, "\u2581HERE": 308, "S": 309, "\u2581must": 310, "_": 311, "\u2581new": 312, "\u2581Waarom": 313, "\u2581later": 314, "\u2581gegee": 315, "\u2581just": 316, "\u2581take": 317, "\u2581two": 318, "\u2581after": 319, "\u2581u": 320, "\u2581dalk": 321, "\u2581family": 322, "\u2581need": 323, "\u2581lank": 324, "\u2581others": 325, "\u2581nuwe": 326, "\u2581Kingdom": 327, "\u2581any": 328, "\u2581elke": 329, "\u2581hand": 330, "\u258115": 331, "\u2581weet": 332, "\u2581Christene": 333, "the": 334, "\u2581men": 335, "\u2581New": 336, "\u2581bring": 337, "r": 338, "\u2581well": 339, "\u2581Satan": 340, "\u2581woorde": 341, "\u2581gedoen": 342, "\u2581dood": 343, "\u2581Christians": 344, "\u2581sodat": 345, "\u2581alle": 346, "\u2581geloof": 347, "\u2581*": 348, "\u2581vrou": 349, "\u2581Sy": 350, "\u2581hele": 351, "\u2581naam": 352, "\u2581geword": 353, "\u2581moontlik": 354, "\u2581G": 355, "\u2581liefde": 356, "\u2581example": 357, "\u25813:": 358, "\u2581di\u00e9": 359, "\u2581very": 360, "\u2581almal": 361, "\u2581own": 362, "\u2581C": 363, "\u2581spirit": 364, "m": 365, "\u2581Jy": 366, "\u2581ten": 367, "\u2581faith": 368, "\u2581through": 369, "\u2581much": 370, "\u2581Jerusalem": 371, "\u2581goed": 372, "\u2581most": 373, "\u2581another": 374, "\u25812:": 375, "\u2581Watter": 376, "\u2581moes": 377, "\u2581weer": 378, "\u2581vind": 379, "\u2581year": 380, "\u2581daarvan": 381, "\u2581say": 382, "\u2581heart": 383, "\u2581S": 384, "\u2581become": 385, "\u2581hart": 386, "\u2581found": 387, "\u2581words": 388, "\u2581T": 389, "\u2581where": 390, "\u2581toon": 391, "\u2581Psalm": 392, "\u2581true": 393, "\u2581nodig": 394, "\u2581U": 395, "\u2581deel": 396, "in": 397, "\u2581against": 398, "re": 399, "\u2581came": 400, "\u2581go": 401, "I": 402, "\u2581Picture": 403, "E": 404, "\u2581self": 405, "\u2581son": 406, "\u2581death": 407, "\u2581wie": 408, "\u2581probeer": 409, "\u2581Wanneer": 410, "\u2581give": 411, "\u2581To": 412, "\u2581use": 413, "\u2581weg": 414, "\u2581great": 415, "\u25814:": 416, "\u2581gekom": 417, "\u2581down": 418, "y": 419, "\u2581B": 420, "\u2581iemand": 421, "\u2581terwyl": 422, "\u2581stel": 423, "\u2581iets": 424, "\u2581That": 425, "\u2581ouers": 426, "\u2581John": 427, "\u2581parents": 428, "\u2581vandag": 429, "\u2581s": 430, "\u2581koning": 431, "\u25811:": 432, "\u2581used": 433, "\u2581times": 434, "\u2581kind": 435, "\u2581volk": 436, "\u2581congregation": 437, "\u2581gees": 438, "\u2581dink": 439, "\u2581One": 440, "\u2581geestelike": 441, "\u2581eie": 442, "\u25813": 443, "\u2581Koninkryk": 444, "\u2581Do": 445, "\u2581book": 446, "/": 447, "\u2581get": 448, "\u2581keer": 449, "\u2581upon": 450, "\u2581spiritual": 451, "\u2581find": 452, "\u2581home": 453, "\u2581ones": 454, "\u2581every": 455, "\u2581ware": 456, "\u2581dikwels": 457, "\u2581put": 458, "\u2581part": 459, "\u25815:": 460, "\u2581alles": 461, "\u25818": 462, "\u2581house": 463, "\u2581\u25a1": 464, "\u2581ontvang": 465, "\u2581might": 466, "\u2581same": 467, "\u2581each": 468, "\u2581let": 469, "\u2581Moses": 470, "se": 471, "\u2581By": 472, "\u2581tog": 473, "\u2581person": 474, "\u2581long": 475, "\u2581sonder": 476, "\u2581young": 477, "\u2581called": 478, "\u2581Prent": 479, "\u2581right": 480, "\u2581nooit": 481, "\u2581geskryf": 482, "\u2581study": 483, "\u2581today": 484, "\u2581David": 485, "\u2581No": 486, "\u2581party": 487, "\u258120": 488, "\u2581boek": 489, "\u25816:": 490, "\u2581place": 491, "\u2581back": 492, "\u2581dien": 493, "\u2581diegene": 494, "\u2581end": 495, "\u2581am": 496, "\u2581voel": 497, "\u2581gesien": 498, "\u2581enige": 499, "\u2581tussen": 500, "\u2581watter": 501, "\u2581away": 502, "\u2581human": 503, "\u2581seun": 504, "\u2581staan": 505, "\u2581too": 506, "\u2581days": 507, "\u2581beteken": 508, "\u2581manier": 509, "\u2581godsdiens": 510, "\u2581Ja": 511, "\u2581among": 512, "\u2581woord": 513, "\u2581kry": 514, "\u2581truth": 515, "\u25815": 516, "\u2581There": 517, "\u2581under": 518, "\u2581unto": 519, "\u2581Some": 520, "\u2581Then": 521, "\u2581dae": 522, "\u2581never": 523, "\u2581manne": 524, "\u2581altyd": 525, "\u2581feel": 526, "\u2581old": 527, "\u2581himself": 528, "\u2581However": 529, "\u2581paar": 530, "\u2581waarheid": 531, "\u2581three": 532, "\u2581sulke": 533, "\u2581often": 534, "\u2581praat": 535, "\u2581volgende": 536, "\u2581beskou": 537, "\u2581king": 538, "\u2581genoem": 539, "\u2581At": 540, "\u2581lees": 541, "heid": 542, "\u258112": 543, "\u258110": 544, "\u2581keep": 545, "th": 546, "\u2581gevind": 547, "\u2581drie": 548, "\u2581Dawid": 549, "c": 550, "\u25811,": 551, "\u2581read": 552, "\u2581gesin": 553, "\u2581though": 554, "\u2581set": 555, "\u2581means": 556, "k": 557, "\u2581Word": 558, "\u2581still": 559, "al": 560, "\u2581verander": 561, "\u2581reg": 562, "\u25814": 563, "\u2581geniet": 564, "ste": 565, "\u2581vra": 566, "\u2581sin": 567, "\u2581why": 568, "\u2581Johannes": 569, "\u2581broers": 570, "\u2581D": 571, "\u2581On": 572, "\u258111": 573, "\u2581without": 574, "\u2581while": 575, "C": 576, "\u2581number": 577, "\u2581einde": 578, "\u2581gevolg": 579, "\u2581dieselfde": 580, "\u2581became": 581, "\u2581brothers": 582, "\u2581Here": 583, "\u2581Om": 584, "\u2581gemeente": 585, "\u2581Een": 586, "\u2581show": 587, "\u258118": 588, "Die": 589, "\u2581werklik": 590, "\u2581given": 591, "\u2581After": 592, "\u2581O": 593, "\u2022": 594, "\u25817": 595, "\u2581bestaan": 596, "\u2581Of": 597, "\u2581during": 598, "\u2581vertel": 599, "\u2581kyk": 600, "\u2581waarom": 601, "\u2581000": 602, "\u2581K": 603, "\u2581live": 604, "\u2581geleer": 605, "\u2581plek": 606, "\u2581mag": 607, "\u25816": 608, "\u2581byvoorbeeld": 609, "\u2581ouer": 610, "\u2581Peter": 611, "\u2581artikel": 612, "\u2581Hoewel": 613, "\u2581father": 614, "\u2581city": 615, "\u2581hoop": 616, "\u2581course": 617, "\u2581wrote": 618, "\u2581verduidelik": 619, "\u2581wife": 620, "\u2581told": 621, "The": 622, "o": 623, "),": 624, "\u2581stad": 625, "\u2581themselves": 626, "A": 627, "\u2581began": 628, "\u2581Woord": 629, "\u2581mekaar": 630, "\u2581between": 631, "\u2581again": 632, "\u2581She": 633, "\u2581went": 634, "\u2581apostle": 635, "\u2581persoon": 636, "\u2581wou": 637, "\u2581egter": 638, "\u2581learn": 639, "\u2581gevra": 640, "\u2581meeste": 641, "\u2581gebeur": 642, "\u2581E": 643, "\u2581Abraham": 644, "\u2581century": 645, "\u2581woon": 646, "ers": 647, "\u2581article": 648, "\u2581off": 649, "es": 650, "\u2581sowel": 651, "\u2581child": 652, "\u2581peace": 653, "\u2581apostel": 654, "\u2581hulp": 655, "\u2581gedurende": 656, "\u2581With": 657, "\u2581important": 658, "\u2581Op": 659, "\u2581took": 660, "\u258130": 661, "\u2581All": 662, "\u2581krag": 663, "l": 664, "\u2581lei": 665, "\u2581little": 666, "\u2581blood": 667, "\u2581power": 668, "\u2581voorbeeld": 669, "\u2581both": 670, "\u2581World": 671, "\u2581gave": 672, "\u2581view": 673, "M": 674, "\u2581besluit": 675, "\u2581hard": 676, "\u2581vrede": 677, "\u2581able": 678, "\u2581Christelike": 679, "\u2581hope": 680, "\u2581voorsien": 681, "\u2581Father": 682, "\u2581raad": 683, "\u2581&": 684, "\u2581service": 685, "\u2581o\u00eb": 686, "\u2581living": 687, "\u2581verstaan": 688, "\u2581sit": 689, "\u2581geneem": 690, "\u2581however": 691, "\u2581M": 692, "\u2581left": 693, "\u2581Job": 694, "\u2581mother": 695, "\u2581ge": 696, "\u25819": 697, "\u2581Let": 698, "\u2581antwoord": 699, "\u258122": 700, "Ek": 701, "\u2581probleme": 702, "\u2581besoek": 703, "\u2581Baie": 704, "\u2581news": 705, "\u2581per": 706, "\u2581Petrus": 707, "\u2581volgens": 708, "\u2581here": 709, "\u2581terug": 710, "\u2581worship": 711, "\u2581really": 712, "\u2581think": 713, "\u2581mind": 714, "\u2581lig": 715, "\u2581geld": 716, "\u258125": 717, "\u2581LORD": 718, "\u2581hemel": 719, "\u2581Yes": 720, "\u2581whom": 721, "\u2581saying": 722, "\u2581full": 723, "\u2581besef": 724, "f": 725, "\u2581system": 726, "\u2581Matthew": 727, "\u2581From": 728, "\u2581Adam": 729, "\u2581fact": 730, "G": 731, "\u258116": 732, "\u2581always": 733, "\u2581%1": 734, "\u2581geval": 735, "p": 736, "\u2581doing": 737, "\u2581Vader": 738, "\u2581nuus": 739, "\u2581klein": 740, "\u2581volg": 741, "\u2581hier": 742, "\u2581heilige": 743, "\u2581raak": 744, "is": 745, "\u2581n\u00e1": 746, "\u2581together": 747, "\u2581knowledge": 748, "\u2581teenoor": 749, "\u2581State": 750, "\u2581lande": 751, "\u2581few": 752, "J": 753, "\u2581jong": 754, "\u2581bekend": 755, "\u2581file": 756, "g": 757, "\u2581holy": 758, "en": 759, "\u2581steeds": 760, "\u2581glo": 761, "\u2581His": 762, "\u2581middel": 763, "\u2581woman": 764, "\u2581something": 765, "\u2581kennis": 766, "\u2581look": 767, "\u2581Lord": 768, "\u2581gehou": 769, "\u2581United": 770, "\u2581Many": 771, "\u2581last": 772, "....": 773, "\u2581jare": 774, "\u2581vroue": 775, "\u2581eeu": 776, "\u2581asked": 777, "\u2581having": 778, "\u2581done": 779, "\u2581beter": 780, "\u2581Be": 781, "\u2581Party": 782, "\u2581food": 783, "\u2581religious": 784, "\u2581Your": 785, "\u2581These": 786, "le": 787, "\u2581high": 788, "\u2581R": 789, "\u2581women": 790, "\u2581Yet": 791, "\u2581since": 792, "\u258112:": 793, "\u2581Our": 794, "\u2581making": 795, "\u2581soek": 796, "\u2581order": 797, "i": 798, "\u2581faithful": 799, "\u2581niks": 800, "\u2581serve": 801, "\u2581Verenigde": 802, "\u2581Kan": 803, "\u2581\"'": 804, "\u2581duidelik": 805, "\u258121": 806, "\u25814.": 807, "\u2581eerder": 808, "\u2581King": 809, "\u2581known": 810, "\u2581cannot": 811, "\u2581result": 812, "\u2581Het": 813, "\u258114": 814, "\u2581Hom": 815, "\u2581ver": 816, "\u25812.": 817, "\u2581preaching": 818, "\u2581hoor": 819, "\u2581message": 820, "\u2581lyk": 821, "\u2581gestel": 822, "\u2581gebied": 823, "\u2581ministry": 824, "\u2581problems": 825, "\u2581W": 826, "\u2581gehelp": 827, "\u2581veroorsaak": 828, "\u2581different": 829, "\u2581hoof": 830, "\u2581P": 831, "\u2581dissipels": 832, "\u2581Even": 833, "\u2581ever": 834, "\u2581aanvaar": 835, "\u2581disciples": 836, "Name": 837, "\u2581Christen": 838, "\u2581brought": 839, "\u2581until": 840, "\u2581veral": 841, "\u2581gevoel": 842, "\u2581weens": 843, "\u258117": 844, "\u2581boodskap": 845, "\u2581body": 846, "\u2581ways": 847, "\u258110:": 848, "\u2581groter": 849, "\u2581nadat": 850, "\u2581eyes": 851, "\u2581better": 852, "\u2581bloed": 853, "\u2581toward": 854, "\u2581Soos": 855, "\u258113": 856, "\u2581Son": 857, "\u2581around": 858, "\u2581nations": 859, "\u2581Yahweh": 860, "\u2581reason": 861, "\u2581vrees": 862, "\u2581waarop": 863, "\u2581rede": 864, "\u2581diens": 865, "\u2581servants": 866, "\u258111:": 867, "\u2581eers": 868, "\u2581Volgen": 869, "\u2581ken": 870, "\u2581open": 871, "\u2581Scriptures": 872, "\u2581persent": 873, "\u2581yet": 874, "\u2581vier": 875, "\u2581dra": 876, "\u2581next": 877, "\u2581N": 878, "\u2581nor": 879, "\u2581grond": 880, "\u2581l\u00ea": 881, "\u2581face": 882, "\u2581Now": 883, "\u2581beslis": 884, "\u2581ma": 885, "\u2581free": 886, "\u2581school": 887, "\u2581F": 888, "\u2581beweeg": 889, "\u2581bediening": 890, "--": 891, "\u2581broer": 892, "\u2581mankind": 893, "\u2581going": 894, "\u2581seker": 895, "\u2581gehoor": 896, "\u2581bewys": 897, "\u2581anders": 898, "\u2581York": 899, "\u2581skryf": 900, "\u2581Genesis": 901, "\u2581thought": 902, "\u2581Thus": 903, "\u2581husband": 904, "\u2581vreugde": 905, "\u25aa": 906, "\u2581mensdom": 907, "\u2581war": 908, "\u2581following": 909, "\u2581nasies": 910, "\u2581fear": 911, "\u2581bereik": 912, "\u2581far": 913, "\u2581program": 914, "\u2581H": 915, "\u2581small": 916, "\u2581sommige": 917, "\u2581sent": 918, "ge": 919, "\u2581Van": 920, "\u2581Want": 921, "\u2581care": 922, "\u2581saw": 923, "\u25817:": 924, "\u2581percent": 925, "\u2581thou": 926, "ende": 927, "\u2581future": 928, "\u2581daarop": 929, "\u2581information": 930, "\u2581An": 931, "\u2581don": 932, "\u2581money": 933, "\u2581Jesaja": 934, "\u2581laaste": 935, "\u2581brother": 936, "x": 937, "\u2581eet": 938, "\u2581lives": 939, "\u2581Al": 940, "or": 941, "\u2581heaven": 942, "\u2581cause": 943, "\u2581Seun": 944, "\u2581Isaiah": 945, "\u2581humans": 946, "\u2581soort": 947, "\u2581vader": 948, "\u258110.": 949, "\u2581vriende": 950, "\u2581feit": 951, "\u2581getoon": 952, "\u2581bespreek": 953, "\u2581law": 954, "\u2581voordat": 955, "\u2581genoeg": 956, "\u2581vol": 957, "\u2581Can": 958, "\u2581possible": 959, "\u2581believe": 960, "\u2581States": 961, "\u2581wyse": 962, "\u2581four": 963, "\u2581J": 964, "\u25815.": 965, "\u2581marriage": 966, "\u2581loving": 967, "\u258113:": 968, "\u2581moeilik": 969, "\u2581according": 970, "\u2581someone": 971, "\u2581verband": 972, "\u2581Met": 973, "\u2581Not": 974, "\u2581vorm": 975, "\u2581Name": 976, "\u2581personal": 977, "\u2581purpose": 978, "\u2581aandag": 979, "\u2581inligting": 980, "\u2581vrae": 981, "\u2581stand": 982, "\u2581age": 983, "\u2581experience": 984, "\u2581Deur": 985, "\u2581thing": 986, "\u2581light": 987, "on": 988, "\u2581needed": 989, "B": 990, "\u2581best": 991, "\u2581along": 992, "\u2581sterk": 993, "\u2581bo": 994, "2": 995, "\u2581gestuur": 996, "\u2581Omdat": 997, "\u2581joy": 998, "\u25818.": 999, "\u2581week": 1000, "\u2581beskryf": 1001, "\u2581elders": 1002, "\u2581Laat": 1003, "\u2581bad": 1004, "\u2581verloor": 1005, "\u2581wel": 1006, "\u2581verkondig": 1007, ".\"": 1008, "\u2581Who": 1009, "\u2581matter": 1010, "to": 1011, "\u2581Because": 1012, "\u2581early": 1013, "\u2581Wie": 1014, "\u2581drink": 1015, "\u25817.": 1016, "\u2581friends": 1017, "\u2581verantwoordelik": 1018, "\u2581religion": 1019, "\u2581felt": 1020, "\u2581ongeveer": 1021, "\u2581questions": 1022, "D": 1023, "\u2581dead": 1024, "\u2581omtrent": 1025, "\u2581thy": 1026, "\u25813.": 1027, "\u2581daarna": 1028, "\u2581erken": 1029, "\u2581pa": 1030, "\u2581Watchtower": 1031, "\u2581tye": 1032, "\u2581consider": 1033, "\u2581kort": 1034, "\u2581verlaat": 1035, "\u2581learned": 1036, "\u258114.": 1037, "\u2581Wagtoring": 1038, "\u2581reeds": 1039, "\u2581sons": 1040, "\u258140": 1041, "\u2581sekere": 1042, "\u2581wonder": 1043, "\u2581knegte": 1044, "\u2581sake": 1045, "\u2581sonde": 1046, "\u2581helped": 1047, "\u2581yourself": 1048, "\u2581jongmense": 1049, "\u2581heard": 1050, "\u2581thus": 1051, "\u2581aanbidding": 1052, "el": 1053, "\u2581vertroue": 1054, "ll": 1055, "\u2581de": 1056, "\u258111.": 1057, "\u2581verkry": 1058, "\u2581night": 1059, "us": 1060, "\u25818,": 1061, "\u2581Jode": 1062, "\u2581fellow": 1063, "\u2581waarin": 1064, "\u2581speak": 1065, "\u2581taken": 1066, "\u2581change": 1067, "\u2581happy": 1068, "\u2581whole": 1069, "\u258112.": 1070, "\u2581geweet": 1071, "\u2581tree": 1072, "\u2581luister": 1073, "\u2581present": 1074, "be": 1075, "\u2581druk": 1076, "\u2581...": 1077, "\u2581mate": 1078, "\u2581ask": 1079, "\u2581ewige": 1080, "\u2581belangrik": 1081, "ver": 1082, "\u2581seuns": 1083, "\u2581regte": 1084, "\u2581loop": 1085, "\u2581geleentheid": 1086, "\u2581close": 1087, "\u258119": 1088, "\u2581gebring": 1089, "\u2581country": 1090, "\u2581Dan": 1091, "\u2581fine": 1092, "\u2581Are": 1093, "\u2581seen": 1094, "\u2581understand": 1095, "\u2581certain": 1096, "\u25819.": 1097, "\u2581wisdom": 1098, "\u2581turn": 1099, "\u2581behoort": 1100, "\u2581health": 1101, "\u2581min": 1102, "\u2581verhouding": 1103, "\u2581toekoms": 1104, "\u2581aangesien": 1105, "\u2581continue": 1106, "\u2581prayer": 1107, "\u2581counsel": 1108, "\u2581liggaam": 1109, "\u2581support": 1110, "\u2581grootste": 1111, "\u2581stelsel": 1112, "\u2581probleem": 1113, "\u2581waarskynlik": 1114, "\u2581elkeen": 1115, "\u2581answer": 1116, "\u2581maklik": 1117, "\u2581wicked": 1118, "\u2581ancient": 1119, "\u258131": 1120, "\u2581gedink": 1121, "\u258124": 1122, "\u2581natuurlik": 1123, "\u2581L": 1124, "\u2581million": 1125, "\u2581tell": 1126, "\u2581case": 1127, "\u2581group": 1128, "\u2581Proverbs": 1129, "\u2581soon": 1130, "\u2581situasie": 1131, "\u2581sure": 1132, "\u2581Spreuke": 1133, "\u2581daarin": 1134, "\u2581received": 1135, "\u2581pad": 1136, "\u258113.": 1137, "\u2581pas": 1138, "\u2581problem": 1139, "\u2581verskillende": 1140, "ve": 1141, "\u2581meetings": 1142, "\u2581large": 1143, "\u2581Kom": 1144, "\u2581wysheid": 1145, "T": 1146, "\u2581naby": 1147, "\u2581point": 1148, "\u2581therefore": 1149, "\u2581Kon": 1150, "\u2581language": 1151, "\u2581Daarom": 1152, "\u2581mean": 1153, "\u2581getroue": 1154, "\u25816.": 1155, "\u2581nothing": 1156, "\u2581talk": 1157, "\u2581especially": 1158, "as": 1159, "\u2581Ander": 1160, "\u2581persoonlike": 1161, "\u2581spreek": 1162, "R": 1163, "\u2581already": 1164, "\u2581died": 1165, "\u25813,": 1166, "\u2581slegs": 1167, "\u2581gewoonlik": 1168, "H": 1169, "ne": 1170, "\u2581Since": 1171, "\u2581vergaderinge": 1172, "\u2581bid": 1173, "\u2581half": 1174, "\u2581studie": 1175, "\u258117.": 1176, "\u2581beste": 1177, "\u2581states": 1178, "\u2581righteous": 1179, "\u258116.": 1180, "\u2581bied": 1181, "\u2581Nadat": 1182, "\u258150": 1183, "\u2581Later": 1184, "\u2581bou": 1185, "\u25818:": 1186, "\u2581members": 1187, "\u2581bevat": 1188, "\u2581skool": 1189, "\u2581huwelik": 1190, "\u2581mans": 1191, "\u2581Jews": 1192, "\u2581gegaan": 1193, "\u2581According": 1194, "like": 1195, "\u2581ou": 1196, "\u2581including": 1197, "\u2581oorlog": 1198, "\u2581staat": 1199, "\u2581Greek": 1200, "\u2581onthou": 1201, "\u258115.": 1202, "\u2581wet": 1203, "\u2581oud": 1204, "\u2581try": 1205, "\u2581Although": 1206, "\u2581binne": 1207, "\u2581verwag": 1208, "\u2581uiteindelik": 1209, "\u25819:": 1210, "\u2581lief": 1211, "\u2581saak": 1212, "\u2581Matteus": 1213, "\u2581Saul": 1214, "\u2581talle": 1215, "\u2581real": 1216, "\u2581Afrika": 1217, "\u2581teaching": 1218, "\u2581IN": 1219, "\u2581See": 1220, "\u258115:": 1221, "\u2581tydskrif": 1222, "\u2581gepraat": 1223, "\u2581Japan": 1224, "\u2581reading": 1225, "\u2581berig": 1226, "\u2581m": 1227, "\u2581Society": 1228, "P": 1229, "\u2581Corinthians": 1230, "\u2581enjoy": 1231, "O": 1232, "an": 1233, "\u2581heeltemal": 1234, "\u2581thee": 1235, "\u2581situation": 1236, "\u2581Show": 1237, "\u2581Openbaring": 1238, "\u2581Revelation": 1239, "\u2581daaraan": 1240, "\u2581ondersoek": 1241, "\u2581control": 1242, "\u2581Skrif": 1243, "\u2581o": 1244, "\u2581sterf": 1245, "\u2581beskouing": 1246, "\u2581Samuel": 1247, "\u2581share": 1248, "\u2581siekte": 1249, "\u2581makes": 1250, "\u2581five": 1251, "\u2581Christendom": 1252, "\u2581Vir": 1253, "\u2581account": 1254, "\u2581once": 1255, "\u2581using": 1256, "\u2581gebed": 1257, "\u2581stem": 1258, "\u2581wrong": 1259, "\u2581soms": 1260, "\u2581near": 1261, "\u2581Today": 1262, "\u2581Dr": 1263, "\u2581difficult": 1264, "\u2581beskerm": 1265, "\u2581James": 1266, "\u2581'%": 1267, "\u2581nader": 1268, "\u2581whether": 1269, "God": 1270, "\u2581receive": 1271, "\u2581l\u00eaer": 1272, "\u2581hemelse": 1273, "\u2581second": 1274, "\u2581text": 1275, "\u2581Kyk": 1276, "\u2581relationship": 1277, "\u258115,": 1278, "\u2581special": 1279, "%": 1280, "\u2581attention": 1281, "\u2581ye": 1282, "\u2581Sal": 1283, "man": 1284, "\u2581forth": 1285, "\u2581strong": 1286, "\u2581feet": 1287, "\u2581diere": 1288, "\u2581DIE": 1289, "\u2581offer": 1290, "\u2581Credit": 1291, "\u2581desire": 1292, "\u2581Trouens": 1293, "\u2581Timothy": 1294, "\u258124:": 1295, "\u2581asof": 1296, "\u2581baptized": 1297, "\u2581uur": 1298, "\u2581Line": 1299, "\u2581question": 1300, "\u2581wys": 1301, "\u2581area": 1302, "\u2581magazine": 1303, "\u2581call": 1304, "\u2581avoid": 1305, "\u2581wise": 1306, "st": 1307, "\u2581While": 1308, "\u2581giving": 1309, "\u2581vernietig": 1310, "\u2581heavenly": 1311, "\u2581wanted": 1312, "\u2581local": 1313, "erwyl": 1314, "\u2581Israeliete": 1315, "\u2581gedrag": 1316, "\u2581waarde": 1317, "Jehovah": 1318, "\u2581anointed": 1319, "\u2581lead": 1320, "\u2581graag": 1321, "\u2581needs": 1322, "\u2581knew": 1323, "\u2581Aangesien": 1324, "\u2581works": 1325, "\u2581move": 1326, "\u2581takes": 1327, "\u2581vyf": 1328, "\u258117:": 1329, "\u2581siel": 1330, "\u2581minder": 1331, "\u2581sluit": 1332, "\u2581taal": 1333, "$": 1334, "\u2581form": 1335, "\u2581vertrou": 1336, "\u2581belangrike": 1337, "\u2581V": 1338, "\u258114:": 1339, "\u2581Skepper": 1340, "\u2581Luke": 1341, "\u2581soul": 1342, "\u2581countries": 1343, "\u2581Creator": 1344, "\u2581gesterf": 1345, "\u2581verslag": 1346, "\u2581value": 1347, "\u2581provide": 1348, "\u2581ooit": 1349, "\u2581wonderlike": 1350, "\u2581werklikheid": 1351, "\u2581maande": 1352, "\u2581moved": 1353, "\u2581myself": 1354, "\u2581volle": 1355, "\u2581comes": 1356, "we": 1357, "\u25819,": 1358, "\u2581People": 1359, "\u2581sense": 1360, "\u2581trek": 1361, "\u2581past": 1362, "\u2581respect": 1363, "\u2581alleen": 1364, "\u2581head": 1365, "\u2581kingdom": 1366, "\u25815,": 1367, "\u2581beveel": 1368, "\u2581hande": 1369, "\u2581got": 1370, "\u2581soveel": 1371, "\u2581image": 1372, "\u2581Israelites": 1373, "\u2581taking": 1374, "\u2581waarvan": 1375, "\u258126": 1376, "\u2581within": 1377, "\u2581feelings": 1378, "\u2581gedoop": 1379, "\u258128": 1380, "\u2581history": 1381, "\u2581kerk": 1382, "\u2581hands": 1383, "\u2581hear": 1384, "\u2581nation": 1385, "City": 1386, "\u2581groep": 1387, "\u2581simply": 1388, "\u2581doel": 1389, "\u2581follow": 1390, "\u2581coming": 1391, "\u2581Net": 1392, "\u2581ag": 1393, "\u2581months": 1394, "\u2581moeder": 1395, "\u2581verder": 1396, "\u2581veel": 1397, "\u2581voedsel": 1398, "\u2581conduct": 1399, "na": 1400, "\u2581plaaslike": 1401, "\u2581Na": 1402, ",\"": 1403, "\u2581Catholic": 1404, "\u2581koninkryk": 1405, "\u2581beeld": 1406, "\u2581aantal": 1407, "\u2581versterk": 1408, "\u2581church": 1409, "\u2581return": 1410, "\u2581red": 1411, "\u2581started": 1412, "\u2581wag": 1413, "\u2581gedagte": 1414, "1": 1415, "it": 1416, "\u2581temple": 1417, "\u2581leave": 1418, "\u2581gevaar": 1419, "\u2581ago": 1420, "\u2581geraak": 1421, "\u2581vervul": 1422, "\u2581tempel": 1423, "\u2581NW": 1424, "z": 1425, "\u2581written": 1426, "\u2581public": 1427, "\u2581gelees": 1428, "\u2581likely": 1429, "\u2581trust": 1430, "\u2581beheer": 1431, "\u2581kos": 1432, "\u2581miskien": 1433, "\u2581plaas": 1434, "\u2581Lukas": 1435, "\u2581X": 1436, "\u2581\"%": 1437, "h": 1438, "\u2581side": 1439, "\u2581gelede": 1440, "\u2581geskiedenis": 1441, "\u2581verwys": 1442, "\u2581sea": 1443, "\u2581leiding": 1444, "\u25816,": 1445, "\u2581Those": 1446, "\u2581lost": 1447, "\u2581v": 1448, "\u2581vermy": 1449, "3": 1450, "\u2581righteousness": 1451, "\u2581involved": 1452, "\u2581behandel": 1453, "om": 1454, "\u2581niemand": 1455, "\u2581ourselves": 1456, "\u2581Could": 1457, "\u2581algemeen": 1458, "\u2581alone": 1459, "\u2581eienskappe": 1460, "\u2581list": 1461, "ig": 1462, "\u2581Nee": 1463, "\u2581longer": 1464, "\u2581Venster": 1465, "ic": 1466, "\u2581Such": 1467, "\u2581gesondheid": 1468, "\u2581huidige": 1469, "\u2581start": 1470, "\u2581eat": 1471, "\u25814,": 1472, "\u2581gesindheid": 1473, "\u2581e": 1474, "\u2581false": 1475, "\u2581gehoorsaam": 1476, "\u2581further": 1477, "\u2581tydens": 1478, "\u2581suffering": 1479, "\u258118.": 1480, "\u2581liefdevolle": 1481, "\u2581above": 1482, "\u2581Acts": 1483, "\u2581reports": 1484, "\u2581less": 1485, "\u2581gebou": 1486, "ar": 1487, "\u2581Rome": 1488, "\u2581Their": 1489, "\u2581interest": 1490, "\u2581Does": 1491, "\u2581verskyn": 1492, "\u2581key": 1493, "\u2581ewig": 1494, "\u2581neither": 1495, "\u2581gevoelens": 1496, "\u2581THE": 1497, "\u2581similar": 1498, "\u2581Dur": 1499, "\u2581verkeerd": 1500, "\u2581eer": 1501, "\u2581taught": 1502, "\u2581gekry": 1503, "\u2581ter": 1504, "ry": 1505, "\u2581Re": 1506, "\u25812,": 1507, "\u2581serving": 1508, "\u2581Selfs": 1509, "\u2581Kies": 1510, "\u2581getrou": 1511, "op": 1512, "\u2581tweede": 1513, "\u2581enough": 1514, "\u2581besig": 1515, "\u2581available": 1516, "U": 1517, "\u2581rather": 1518, "\u2581Romeine": 1519, "\u2581married": 1520, "\u2581strength": 1521, "\u2581based": 1522, "\u2581prophet": 1523, "\u2581Romans": 1524, "\u2581gelei": 1525, "\u2581report": 1526, "\u2581voorspel": 1527, "\u2581maniere": 1528, "\u2581profeet": 1529, "u": 1530, "\u2581vraag": 1531, "\u2581openbaar": 1532, "\u2581Nuwe": 1533, "\u2581se\u00ebn": 1534, "\u2581Life": 1535, "\u2581Katolieke": 1536, "\u2581Pictures": 1537, "edurende": 1538, "\u2581Solomon": 1539, "\u2581kilometer": 1540, "\u2581common": 1541, "\u2581gou": 1542, "\u2581Geen": 1543, "\u2581thinking": 1544, "\u2581Law": 1545, "\u2581benefit": 1546, "\u2581shows": 1547, "\u2581nasie": 1548, "\u2581field": 1549, "\u2581government": 1550, "\u2581agter": 1551, "\u2581clear": 1552, "\u2581Will": 1553, "\u2581pray": 1554, "lik": 1555, "\u2581oordeel": 1556, "able": 1557, "\u2581spesiale": 1558, "\u2581Daniel": 1559, "\u2581divine": 1560, "ness": 1561, "\u2581ernstige": 1562, "\u2581un": 1563, "\u2581Juda": 1564, "\u2581Africa": 1565, "\u2581Salomo": 1566, "\u2581kwaad": 1567, "\u2581six": 1568, "\u2581certainly": 1569, "\u2581vroe\u00eb": 1570, "\u2581anything": 1571, "ur": 1572, "\u2581held": 1573, "\u2581Awake": 1574, "\u2581Or": 1575, "\u258123": 1576, "\u2581enigste": 1577, "\u2581betrokke": 1578, "\u2581gives": 1579, "\u2581slegte": 1580, "\u2581Judah": 1581, "\u2581sorg": 1582, "\u2581rol": 1583, "\u2581Please": 1584, "\u2581evidence": 1585, "ri": 1586, "\u2581ontstaan": 1587, "\u2581begeerte": 1588, "\u2581kept": 1589, "\u2581teach": 1590, "\u2581miles": 1591, "\u2581100": 1592, "\u2581dade": 1593, "\u00b7": 1594, "\u2581selected": 1595, "\u2581ondersteun": 1596, "\u2581kindness": 1597, "4": 1598, "\u258118:": 1599, "\u2581voorkom": 1600, "\u2581Bethel": 1601, "\u2581sheep": 1602, "\u2581material": 1603, "\u2581totdat": 1604, "\u2581Consider": 1605, "\u2581diep": 1606, "\u2581blykbaar": 1607, "\u2581brief": 1608, "\u2581principles": 1609, "\u2581voorneme": 1610, "\u2581gebore": 1611, "\u2581gelyk": 1612, "ke": 1613, "\u2581uitwerking": 1614, "\u2581Nie": 1615, "\u2581Maak": 1616, "\u2581act": 1617, "\u2581itself": 1618, "\u2581perfect": 1619, "\u2581fire": 1620, "\u2581gids": 1621, "\u2581hul": 1622, "\u2581voer": 1623, "\u2581anyone": 1624, "F": 1625, "\u258119.": 1626, "\u2581organization": 1627, "\u2581ontwikkel": 1628, "\u2581Ge": 1629, "\u2581kant": 1630, "\u2581voort": 1631, "\u2581sacrifice": 1632, "\u2581attitude": 1633, "\u2581Ontwaak": 1634, "\u2581ongetwyfeld": 1635, "\u2581born": 1636, "\u2581matters": 1637, "In": 1638, "\u2581lot": 1639, "\u2581whose": 1640, "\u2581families": 1641, "\u2581greater": 1642, "\u2581herstel": 1643, "\u2581glad": 1644, "\u2581modern": 1645, "\u2581organisasie": 1646, "\u2581geregtigheid": 1647, "\u2581Mark": 1648, "\u2581buite": 1649, "\u2581Handelinge": 1650, "\u2581month": 1651, "\u2581remain": 1652, "\u2581Open": 1653, "ma": 1654, "\u2581Joseph": 1655, "\u2581Aan": 1656, "\u2581Roman": 1657, "\u2581rule": 1658, "\u258160": 1659, "\u2581Griekse": 1660, "\u2581lede": 1661, "\u2581val": 1662, "As": 1663, "\u2581friend": 1664, "\u2581fully": 1665, "\u258129": 1666, "\u2581seven": 1667, "\u2581physical": 1668, "\u2581gebly": 1669, "\u2581kies": 1670, "\u2581letter": 1671, "\u2581showed": 1672, "You": 1673, "\u2581stop": 1674, "\u2581verstand": 1675, "\u2581lived": 1676, "\u2581vas": 1677, "\u2581geluk": 1678, "\u2581stuur": 1679, "\u2581valse": 1680, "\u2581glory": 1681, "\u2581Egypt": 1682, "\u2581geslag": 1683, "\u2581least": 1684, "\u2581rest": 1685, "\u2581speel": 1686, "\u2581everlasting": 1687, "\u2581several": 1688, "\u2581truly": 1689, "\u2581serious": 1690, "\u2581predikingswerk": 1691, "\u2581hours": 1692, "\u2581miljoen": 1693, "\u2581state": 1694, "\u2581tien": 1695, "het": 1696, "\u258116:": 1697, "\u258120.": 1698, "\u258170": 1699, "\u2581line": 1700, "\u2581perhaps": 1701, "\u2581GNOME": 1702, "\u2581goddelose": 1703, "\u2581Watch": 1704, "\u2581poor": 1705, "\u2581hold": 1706, "\u2581getuig": 1707, "\u2581ly": 1708, "\u2581color": 1709, "ch": 1710, "\u258114,": 1711, "\u258122,": 1712, "\u2581meeting": 1713, "\u258120:": 1714, "\u2581km": 1715, "\u2581aangaande": 1716, "\u2581everything": 1717, "\u258133": 1718, "\u2581re": 1719, "\u2581plekke": 1720, "\u2581write": 1721, "\u2581effect": 1722, "\u2581provided": 1723, "\u2581onderwerp": 1724, "\u2581evil": 1725, "\u2581Therefore": 1726, "\u2581loved": 1727, "\u2581Would": 1728, "\u2581gereeld": 1729, "\u2581happiness": 1730, "\u2581nag": 1731, "L": 1732, "\u2581beskikbaar": 1733, "\u2581deep": 1734, "\u2581werke": 1735, "\u2581eertydse": 1736, "\u2581geskep": 1737, "\u2581issue": 1738, "\u2581visit": 1739, "\u2581Dink": 1740, "\u2581noem": 1741, "\u2581oop": 1742, "\u2581sewe": 1743, "\u2581vroe\u00ebr": 1744, "K": 1745, "\u2581warm": 1746, "\u2581understanding": 1747, "ro": 1748, "\u258121.": 1749, "\u258119:": 1750, "\u2581sister": 1751, "\u2581accept": 1752, "\u2581mentioned": 1753, "\u2581verskil": 1754, "\u2581homself": 1755, "\u2581berg": 1756, "\u2581Wet": 1757, "\u2581beoefen": 1758, "\u2581teks": 1759, "\u258116,": 1760, "\u2581betref": 1761, "\u2581Prente": 1762, "\u25817,": 1763, "\u2581ses": 1764, "\u2581vermo\u00eb": 1765, "\u2581meet": 1766, "\u2581Times": 1767, "\u2581Vandag": 1768, "\u2581happened": 1769, "\u2581skep": 1770, "\u2581spoke": 1771, "\u2581Box": 1772, "\u2581hedendaagse": 1773, "\u2581asook": 1774, "\u2581venster": 1775, "\u2581Hebrew": 1776, "\u2581familie": 1777, "\u2581slaap": 1778, "\u2581turned": 1779, "\u2581Tower": 1780, "\u2581susters": 1781, "iese": 1782, "\u2581meter": 1783, "\u2581explained": 1784, "\u2581meaning": 1785, "\u2581remember": 1786, "\u2581disease": 1787, "\u2581eenvoudig": 1788, "\u2581walk": 1789, "\u2581Man": 1790, "\u2581Nou": 1791, "\u2581forever": 1792, "\u2581please": 1793, "ul": 1794, "\u2581type": 1795, "\u2581named": 1796, "\u2581waters": 1797, "ation": 1798, "\u2581explains": 1799, "\u2581natural": 1800, "\u2581almost": 1801, "\u2581authority": 1802, "\u2581bladsye": 1803, "\u2581vereis": 1804, "\u2581ondervinding": 1805, "\u2581changes": 1806, "\u258110,": 1807, "\u258111,": 1808, "\u2581resurrection": 1809, "\u2581flesh": 1810, "\u2581Koning": 1811, "\u2581omstandighede": 1812, "\u2581voice": 1813, "\u2581groei": 1814, "\u2581Moenie": 1815, "\u2581followers": 1816, "\u2581ryk": 1817, "der": 1818, "\u2581morning": 1819, "\u2581thousands": 1820, "dat": 1821, "\u2581Witness": 1822, "\u2581Rather": 1823, "\u2581stryd": 1824, "ter": 1825, "\u2581address": 1826, "\u2581judgment": 1827, "\u2581deal": 1828, "\u2581Most": 1829, "\u2581True": 1830, "\u2581Joodse": 1831, "\u2581Maria": 1832, "\u2581Naam": 1833, "\u2581lug": 1834, "\u2581ondervind": 1835, "\u2581geestelik": 1836, "\u2581save": 1837, "\u2581betaal": 1838, "\u2581hearts": 1839, "\u2581verseker": 1840, "\u2581Sien": 1841, "\u2581Was": 1842, "\u2581places": 1843, "\u2581seem": 1844, "\u2581N\u00e1": 1845, ":%": 1846, "\u2581heavens": 1847, "\u2581working": 1848, "\u2581command": 1849, "\u2581%2": 1850, "\u2581period": 1851, "\u2581gelukkig": 1852, "\u2581vuur": 1853, "\u2581vriend": 1854, "ie": 1855, "\u2581volgelinge": 1856, "ion": 1857, "\u2581heel": 1858, "\u2581lang": 1859, "\u2581Jewish": 1860, "\u2581byna": 1861, "pe": 1862, "Dit": 1863, "\u2581action": 1864, "\u2581pain": 1865, "\u2581bevorder": 1866, "\u2581source": 1867, "\u2581speaking": 1868, "\u2581toegelaat": 1869, "\u2581prophecy": 1870, "\u2581current": 1871, "v": 1872, "\u2581St": 1873, "\u2581easy": 1874, "\u02b9": 1875, "\u2581display": 1876, "\u2581animals": 1877, "\u2581continued": 1878, "\u2581La": 1879, "\u2581Mense": 1880, "\u2581aanbid": 1881, "\u2581vorige": 1882, "\u2581older": 1883, "\u2581witness": 1884, "\u2581skape": 1885, "\u2581April": 1886, "\u2581bietjie": 1887, "\u2581wind": 1888, "\u2581millions": 1889, "\u2581pioneer": 1890, "\u2581apostels": 1891, "\u2581apostles": 1892, "\u2581Did": 1893, "\u2581covenant": 1894, "\u2581individuals": 1895, "\u2581effort": 1896, "\u2581suster": 1897, "la": 1898, "\u2581bloot": 1899, "\u2581eenheid": 1900, "\u2581pages": 1901, "\u2581sun": 1902, "\u258132": 1903, "\u2581position": 1904, "\u2581sowat": 1905, "\u2581Stel": 1906, "\u2581Waar": 1907, "\u2581events": 1908, "\u2581published": 1909, "\u2581white": 1910, "\u2581verskeie": 1911, "\u2581wonderful": 1912, "\u2581x": 1913, "ies": 1914, "\u2581daughter": 1915, "\u2581Mary": 1916, "\u2581wit": 1917, "\u2581led": 1918, "\u2581game": 1919, "\u2581English": 1920, "\u2581verwerp": 1921, "\u2581Dani\u00ebl": 1922, "\u2581sound": 1923, "\u2581versprei": 1924, "\u2581wandel": 1925, "\u2581Dis": 1926, "\u2581various": 1927, "\u2581haat": 1928, "\u2581daarom": 1929, "\u2581vinnig": 1930, "\u2581Moet": 1931, "\u2581changed": 1932, "\u258112,": 1933, "\u2581Hebre\u00ebrs": 1934, "\u2581Church": 1935, "\u2581gevolge": 1936, "\u2581allow": 1937, "\u2581single": 1938, "\u2581door": 1939, "\u2581gedagtes": 1940, "\u2581window": 1941, "\u2581vertoon": 1942, "\u2581Hebrews": 1943, "\u2581Babylon": 1944, "\u2581created": 1945, "\u2581oog": 1946, "\u2581reis": 1947, "\u2581geweld": 1948, "\u2581job": 1949, "\u2581regverdige": 1950, "\u2581priest": 1951, "\u2581verlede": 1952, "\u2581actually": 1953, "\u2581Indeed": 1954, "\u2581klere": 1955, "me": 1956, "\u2581bewaar": 1957, "\u2581freedom": 1958, "\u2581ho\u00eb": 1959, "\u2581Time": 1960, "\u2581dele": 1961, "\u2581k": 1962, "\u2581promise": 1963, "\u2581pyn": 1964, "\u2581vlees": 1965, "ting": 1966, "\u2581god": 1967, "\u2581sisters": 1968, "\u2581Egipte": 1969, "\u2581May": 1970, "\u2581considered": 1971, "\u2581South": 1972, "\u258122:": 1973, "\u2581tried": 1974, "\u2581opstanding": 1975, "\u2581Another": 1976, "\u2581invloed": 1977, "eth": 1978, "\u2581efforts": 1979, "\u2581seek": 1980, "\u2581toelaat": 1981, "\u2581Korinti\u00ebrs": 1982, "\u2581birth": 1983, "\u2581Timoteus": 1984, "\u2581clean": 1985, "\u2581Amerikaanse": 1986, "\u2581artikels": 1987, "\u2581class": 1988, "\u2581powerful": 1989, "\u2581violence": 1990, "\u2581engele": 1991, "\u2581stated": 1992, "W": 1993, "end": 1994, "\u2581activity": 1995, "\u2581else": 1996, "\u2581regering": 1997, "\u2581minste": 1998, ":\"": 1999, "\u2581Great": 2000, "\u2581omgewing": 2001, "\u2581regarding": 2002, "\u2581stede": 2003, "\u2581Internet": 2004, "do": 2005, "no": 2006, "\u2581doubt": 2007, "\u2581gain": 2008, "\u2581returned": 2009, "\u2581short": 2010, "\u00e9": 2011, "\u2581priests": 2012, "\u2581vergadering": 2013, "\u2581First": 2014, "\u2581everyone": 2015, "\u2581served": 2016, "\u2581didn": 2017, "\u2581minister": 2018, "\u2581cities": 2019, "um": 2020, "\u2581vergelyk": 2021, "\u2581dogter": 2022, "\u2581Voor": 2023, "\u2581vergeet": 2024, "werk": 2025, "\u2581toestand": 2026, "\u2581Devil": 2027, "\u2581parts": 2028, "\u2581youths": 2029, "\u2581studies": 2030, "\u2581tans": 2031, "of": 2032, "\u2581Like": 2033, "\u2581oorspronklike": 2034, "\u2581bed": 2035, "\u2581spiritually": 2036, "\u2581September": 2037, "\u2581qualities": 2038, "\u2581Europe": 2039, "im": 2040, "\u2581eens": 2041, "\u2581miljoene": 2042, "\u2581plant": 2043, "\u2581Gaan": 2044, "\u2581building": 2045, "\u2581gemeentes": 2046, "\u2581waardeer": 2047, "\u2581Getuie": 2048, "\u2581books": 2049, "\u2581listen": 2050, "\u2581pogings": 2051, "Y": 2052, "\u2581Wys": 2053, "\u2581slave": 2054, "\u2581gerus": 2055, "aan": 2056, "\u2581Europa": 2057, "\u2581anger": 2058, "\u2581American": 2059, "\u2581waardering": 2060, "\u2581War": 2061, "\u2581congregations": 2062, "\u2581bestudeer": 2063, "\u2581Just": 2064, "\u2581gevalle": 2065, "\u2581indeed": 2066, "\u2581servant": 2067, "\u2581verwyder": 2068, "\u2581baat": 2069, "\u2581thousand": 2070, "\u2581vryheid": 2071, "lo": 2072, "\u2581ground": 2073, "\u2581inspired": 2074, "\u2581subject": 2075, "est": 2076, "\u2581air": 2077, "\u2581Gilead": 2078, "\u2581tale": 2079, "ak": 2080, "\u2581branch": 2081, "\u2581circumstances": 2082, "\u2581gift": 2083, "\u2581persone": 2084, "5": 2085, "N": 2086, "\u2581cut": 2087, "\u2581heerlikheid": 2088, "\u2581bang": 2089, "\u258123.": 2090, "\u2581getting": 2091, "\u2581build": 2092, "\u2581built": 2093, "\u2581pragtige": 2094, "=": 2095, "\u258122.": 2096, "\u2581entire": 2097, "\u2581Jakobus": 2098, "\u2581gebede": 2099, "\u2581verduur": 2100, "\u2581ja": 2101, "\u258113,": 2102, "\u2581caused": 2103, "\u2581Josef": 2104, "\u2581described": 2105, "\u2581rook": 2106, "\u2581students": 2107, "\u2581koerant": 2108, "\u2581Nog": 2109, "Ons": 2110, "\u2581voltydse": 2111, "\u2581behoeftes": 2112, "\u2581throughout": 2113, "\u2581complete": 2114, "\u2581prys": 2115, "\u2581term": 2116, "\u2581comfort": 2117, "\u2581huise": 2118, "\u2581Suid": 2119, "\u2581size": 2120, "\u2581More": 2121, "\u2581hundred": 2122, "\u2581articles": 2123, "\u2581mond": 2124, "\u2581usually": 2125, "\u2581Germany": 2126, "V": 2127, "\u2581eeue": 2128, "\u2581voorreg": 2129, "\u2581Voeg": 2130, "\u2581added": 2131, "\u2581pass": 2132, "\u2581mouth": 2133, "\u2581worldwide": 2134, "\u2581seems": 2135, "\u2581gesag": 2136, "\u2581sondes": 2137, "\u2581Ver": 2138, "\u2581lands": 2139, "\u2581musiek": 2140, "\u2581teken": 2141, "\u2581accepted": 2142, "\u2581g": 2143, "\u2581regular": 2144, "il": 2145, "\u2581shown": 2146, "\u2581sins": 2147, "\u2581hoewel": 2148, "\u2581liefhet": 2149, "\u2581heen": 2150, "\u2581Teen": 2151, "\u2581answered": 2152, "\u2581hath": 2153, "\u2581Duiwel": 2154, "\u2581Gevolglik": 2155, "\u2581Daarbenewens": 2156, "\u2581beautiful": 2157, "\u2581Voetnoot": 2158, "\u2581blessing": 2159, "\u2581stay": 2160, "\u2581carry": 2161, "w": 2162, "\u2581fall": 2163, "\u2581Hence": 2164, "\u2581harte": 2165, "\u2581opportunity": 2166, "\u2581force": 2167, "\u2581fout": 2168, "ia": 2169, "\u2581betoon": 2170, "\u2581office": 2171, "\u2581rich": 2172, "Comment": 2173, "\u2581Hall": 2174, "\u2581grow": 2175, "\u2581sexual": 2176, "\u2581siek": 2177, "\u2581third": 2178, "\u2581veranderinge": 2179, "\u2581verskaf": 2180, "\u2581beweer": 2181, "\u258127": 2182, "ra": 2183, "\u2581former": 2184, "\u2581kop": 2185, "bare": 2186, "\u2581belofte": 2187, "\u2581honor": 2188, "\u2581\u00a9": 2189, "\u2581either": 2190, "\u2581profesie": 2191, "\u2581gedien": 2192, "\u2581reach": 2193, "\u258135": 2194, "\u2581aand": 2195, "\u2581Foto": 2196, "\u2581motor": 2197, "\u2581gemeenskap": 2198, "\u2581role": 2199, "\u2581vergewe": 2200, "\u2581Canada": 2201, "\u2581fisiese": 2202, "\u2581centuries": 2203, "\u2581proved": 2204, "\u2581belangstelling": 2205, "\u2581bron": 2206, "\u2581gesit": 2207, "\u2581behind": 2208, "\u2581hulleself": 2209, "\u2581ability": 2210, "\u2581posisie": 2211, "\u2581decision": 2212, "\u2581contact": 2213, "\u2581Jeremiah": 2214, "\u2581trou": 2215, "\u2581necessary": 2216, "\u2581daarvoor": 2217, "\u2581Instead": 2218, "\u2581offered": 2219, "\u2581Jeremia": 2220, "\u2581Julle": 2221, "\u2581Lees": 2222, "\u2581prayers": 2223, "\u2581helps": 2224, "\u2581prove": 2225, "\u2581verbeter": 2226, "\u2581Matthe\u00fcs": 2227, "\u2581instance": 2228, "\u2581gewerk": 2229, "\u2581verkoop": 2230, "\u2581influence": 2231, "\u2581Have": 2232, "\u2581apply": 2233, "\u2581sleep": 2234, "\u2581TV": 2235, "\u2581newspaper": 2236, "\u2581search": 2237, "\u2581\u25cf": 2238, "\u2581Go": 2239, "\u2581error": 2240, "\u2581killed": 2241, "\u2581Bybelstudie": 2242, "\u2581moral": 2243, "\u2581albei": 2244, "\u2581vital": 2245, "\u2581dis": 2246, "\u2581boeke": 2247, "\u2581Jou": 2248, "\u2581\u00e2": 2249, "ton": 2250, "\u2581langs": 2251, "he": 2252, "\u2581ouderdom": 2253, "\u2581slaan": 2254, "\u2581basis": 2255, "\u2581recent": 2256, "\u2581vyande": 2257, "\u2581About": 2258, "\u2581openbare": 2259, "less": 2260, "\u2581arm": 2261, "\u2581beginning": 2262, "at": 2263, "\u2581political": 2264, "\u2581room": 2265, "\u2581files": 2266, "\u2581confidence": 2267, "\u2581hour": 2268, "\u2581lys": 2269, "\u2581results": 2270, "\u2581ontmoet": 2271, "\u2581Hebreeuse": 2272, "\u2581couple": 2273, "\u2581destruction": 2274, "\u2581ding": 2275, "\u2581volmaakte": 2276, "\u2581daily": 2277, "\u2581politieke": 2278, "\u2581areas": 2279, "\u2581Uit": 2280, "\u2581bedoel": 2281, "\u2581voltooi": 2282, "\u2581derde": 2283, "\u2581angels": 2284, "\u2581appropriate": 2285, "\u2581daaroor": 2286, "\u2581vrugte": 2287, "\u2581gold": 2288, "\u2581gebiede": 2289, "\u2581standards": 2290, "\u2581respek": 2291, "\u2581pos": 2292, "ja": 2293, "\u2581ouere": 2294, "\u2581godly": 2295, "\u2581nature": 2296, "\u2581appointed": 2297, "\u2581reported": 2298, "\u2581answers": 2299, "\u2581decided": 2300, "\u2581looking": 2301, "\u2581willing": 2302, "\u2581minute": 2303, "\u2581Noag": 2304, "\u2581top": 2305, "\u2581Where": 2306, "\u2581moed": 2307, "\u2581bepaal": 2308, "\u2581boodskappe": 2309, "\u2581prison": 2310, "\u2581sometimes": 2311, "\u2581goedhartigheid": 2312, "\u2581priesters": 2313, "\u2581Ma": 2314, "\u258117,": 2315, "\u258134": 2316, "\u2581Hou": 2317, "\u2581advice": 2318, "\u2581activities": 2319, "\u2581Still": 2320, "\u2581lewens": 2321, "\u2581opdrag": 2322, "\u2581waarlik": 2323, "\u2581Noah": 2324, "\u2581clearly": 2325, "\u2581promises": 2326, "\u2581allowed": 2327, "\u2581learning": 2328, "\u2581Wil": 2329, "\u2581maand": 2330, "\u2581music": 2331, "\u2581soortgelyke": 2332, "\u2581aangesig": 2333, "\u2581followed": 2334, "\u2581ooreenstemming": 2335, "\u2581gesalfde": 2336, "\u2581pay": 2337, "\u2581black": 2338, "\u2581konings": 2339, "\u2581raised": 2340, "\u2581los": 2341, "\u2581voorbeelde": 2342, "\u2581medical": 2343, "\u2581Erkenning": 2344, "\u2581Hier": 2345, "\u2581gewone": 2346, "\u2581Her": 2347, "\u2581kleur": 2348, "\u2581praise": 2349, "\u2581mede": 2350, "\u2581t": 2351, "\u2581thoughts": 2352, "\u2581tydperk": 2353, "gene": 2354, "\u2581examples": 2355, "\u2581mediese": 2356, "\u2581getuienis": 2357, "6": 2358, "\u2581filled": 2359, "\u2581ernstig": 2360, "\u2581Kerk": 2361, "\u2581duisende": 2362, "\u2581gebrek": 2363, "\u2581maintain": 2364, "\u2581choose": 2365, "\u2581data": 2366, "\u2581geantwoord": 2367, "\u2581Read": 2368, "\u2581be\u00efnvloed": 2369, "\u2581trying": 2370, "\u2581sign": 2371, "\u2581preach": 2372, "\u2581se\u00ebninge": 2373, "\u2581voeg": 2374, "\u2581Select": 2375, "\u2581quickly": 2376, "\u2581menslike": 2377, "\u258124.": 2378, "\u2581creation": 2379, "\u2581play": 2380, "\u2581France": 2381, "\u2581koop": 2382, "\u2581gebid": 2383, "\u2581studeer": 2384, "\u2581earlier": 2385, "\u2581II": 2386, "\u2581bereid": 2387, "\u2581baptism": 2388, "\u2581Duitsland": 2389, "\u2581convention": 2390, "\u2581Well": 2391, "\u2581increase": 2392, "\u2581cases": 2393, "\u2581document": 2394, "\u2581failed": 2395, "\u258119,": 2396, "\u2581bewus": 2397, "\u2581geboorte": 2398, "It": 2399, "\u2581practice": 2400, "\u258123]": 2401, "\u2581folder": 2402, "\u2581Land": 2403, "\u2581p": 2404, "\u2581laws": 2405, "\u2581punt": 2406, "\u2581social": 2407, "\u2581fruit": 2408, "We": 2409, "\u2581Moreover": 2410, "\u2581sight": 2411, "\u2581wants": 2412, "\u2581salvation": 2413, "\u2581bevel": 2414, "\u2581ready": 2415, "son": 2416, "\u2581draw": 2417, "\u2581conditions": 2418, "\u2581girl": 2419, "\u2581privilege": 2420, "\u2581skoon": 2421, "\u2581kings": 2422, "\u2581reageer": 2423, "\u2581brood": 2424, "\u25817]": 2425, "\u2581Eva": 2426, "\u2581include": 2427, "\u2581onmiddellik": 2428, "os": 2429, "\u2581gekose": 2430, "\u2581hoofstuk": 2431, "\u2581presies": 2432, "ling": 2433, "\u2581gekies": 2434, "\u2581suffer": 2435, "ity": 2436, "\u2581direction": 2437, "\u2581Romeinse": 2438, "\u2581Sommige": 2439, "\u2581Though": 2440, "\u2581sedert": 2441, "\u2581Holy": 2442, "et": 2443, "\u2581chapter": 2444, "\u2581copy": 2445, "\u2581outside": 2446, "\u2581passed": 2447, "\u2581rykdom": 2448, "\u2581appreciate": 2449, "\u2581gewete": 2450, "\u2581byeenkoms": 2451, "\u2581Scriptural": 2452, "\u2581crowd": 2453, "\u2581promised": 2454, "\u2581parent": 2455, "\u2581redes": 2456, "\u2581concern": 2457, "\u2581Ask": 2458, "\u2581behels": 2459, "\u2581behou": 2460, "\u2581education": 2461, "My": 2462, "ta": 2463, "\u2581probably": 2464, "\u2581Wel": 2465, "\u2581bear": 2466, "\u2581individual": 2467, "\u2581pressure": 2468, "\u2581Elke": 2469, "\u2581develop": 2470, "\u2581inderdaad": 2471, "\u2581Fout": 2472, "\u2581aangespoor": 2473, "\u2581business": 2474, "\u2581car": 2475, "\u2581f": 2476, "\u2581Babilon": 2477, "\u25811914": 2478, "\u2581Amerika": 2479, "\u2581appreciation": 2480, "\u2581exercise": 2481, "\u258117]": 2482, "\u2581justice": 2483, "\u2581Sulke": 2484, "\u2581responsibility": 2485, "\u2581Wees": 2486, "\u2581hoef": 2487, "\u2581lack": 2488, "\u2581Before": 2489, "\u2581besit": 2490, "\u2581regard": 2491, "\u2581America": 2492, "\u2581Nevertheless": 2493, "\u2581City": 2494, "\u2581reasons": 2495, "\u2581required": 2496, "Sien": 2497, "wat": 2498, "ive": 2499, "\u2581plan": 2500, "\u2581200": 2501, "\u2581begrip": 2502, "\u2581gespreek": 2503, "\u2581eye": 2504, "\u2581gesig": 2505, "\u2581determined": 2506, "\u2581erkenning": 2507, "\u2581noted": 2508, "ce": 2509, "\u2581we\u00eb": 2510, "\u2581ark": 2511, "\u2581experienced": 2512, "\u2581jarige": 2513, "\u2581regverdigheid": 2514, "\u2581trees": 2515, "\u2581beklemtoon": 2516, "\u2581moeilike": 2517, "\u2581toepassing": 2518, "\u2581Gebruik": 2519, "\u2581verbond": 2520, "\u2581persons": 2521, "\u2581training": 2522, "land": 2523, "\u2581integrity": 2524, "\u2581beginsels": 2525, "\u2581addition": 2526, "\u2581boom": 2527, "\u2581happen": 2528, "\u2581honderd": 2529, "\u2581lyding": 2530, "\u2581offering": 2531, "\u2581Only": 2532, "\u2581gewees": 2533, "\u2581Vertoon": 2534, "\u2581heerskappy": 2535, "\u2581teachings": 2536, "\u2581opsigte": 2537, "\u2581Ten": 2538, "\u2581major": 2539, "hede": 2540, "\u2581opened": 2541, "\u2581wette": 2542, "\u2581loyal": 2543, "\u2581oortuig": 2544, "\u2581simple": 2545, "\u2581attend": 2546, "\u2581siektes": 2547, "\u2581standaarde": 2548, "co": 2549, "\u2581geopenbaar": 2550, "\u2581knows": 2551, "\u2581precious": 2552, "\u2581video": 2553, "\u2581;": 2554, "\u2581blessings": 2555, "\u2581languages": 2556, "\u2581run": 2557, "\u2581vertaal": 2558, "\u2581interested": 2559, "\u2581names": 2560, "\u2581lewer": 2561, "\u2581sleutel": 2562, "\u2581bedrywighede": 2563, "\u2581bevestig": 2564, "Christengemeente": 2565, "\u2581verkeerde": 2566, "\u2581Jacob": 2567, "\u2581noodsaaklik": 2568, "rs": 2569, "\u2581event": 2570, "\u2581meen": 2571, "\u2581@": 2572, "\u2581beyond": 2573, "\u2581gewoon": 2574, "\u2581messages": 2575, "\u2581Groot": 2576, "\u2581enemies": 2577, "\u2581accurate": 2578, "\u2581eiland": 2579, "\u2581foretold": 2580, "\u2581proper": 2581, "\u2581enigiets": 2582, "\u2581Onder": 2583, "\u2581behandeling": 2584, "ek": 2585, "\u2581National": 2586, "\u2581beantwoord": 2587, "\u2581date": 2588, "\u2581oil": 2589, "\u2581quality": 2590, "\u2581swart": 2591, "\u2581Daarna": 2592, "\u2581recorded": 2593, "\u2581youth": 2594, "\u2581Indien": 2595, "\u2581feeling": 2596, "\u2581literature": 2597, "\u2581moedig": 2598, "\u258118,": 2599, "\u2581Don": 2600, "\u2581inwoners": 2601, "\u2581Others": 2602, "\u2581becoming": 2603, "\u2581belowe": 2604, "\u2581bread": 2605, "un": 2606, "\u258123:": 2607, "\u2581swaar": 2608, "\u2581OF": 2609, "\u2581leaders": 2610, "\u2581enter": 2611, "\u2581risk": 2612, "\u2581verse": 2613, "ster": 2614, "\u258180": 2615, "\u2581idea": 2616, "\u2581dokument": 2617, "\u2581Byvoorbeeld": 2618, "\u2581quite": 2619, "\u2581sick": 2620, "\u2581occasion": 2621, "\u2581record": 2622, "\u2581regularly": 2623, "\u2581arrived": 2624, "\u2581realize": 2625, "\u2581gepas": 2626, "\u2581November": 2627, "\u2581Footnote": 2628, "\u2581Keep": 2629, "\u2581affect": 2630, "\u2581denke": 2631, "\u2581hoeveel": 2632, "\u2581voordeel": 2633, "\u2581gepaste": 2634, "\u2581protect": 2635, "\u2581conscience": 2636, "\u2581Le": 2637, "\u2581opgewek": 2638, "\u2581original": 2639, "\u2581revealed": 2640, "\u2581voortdurend": 2641, "\u2581500": 2642, "\u2581instead": 2643, "\u2581speech": 2644, "\u2581tells": 2645, "\u258115]": 2646, "\u2581betekenis": 2647, "\u2581duur": 2648, "\u2581onderrig": 2649, "\u2581asseblief": 2650, "\u2581rus": 2651, "\u2581l\u00eaers": 2652, "@": 2653, "\u2581Testament": 2654, "\u2581skepping": 2655, "\u2581worked": 2656, "\u2581related": 2657, "\u2581helping": 2658, "\u2581belang": 2659, "\u2581fish": 2660, "\u2581angel": 2661, "uit": 2662, "\u2581Alle": 2663, "\u2581Mag": 2664, "\u2581aardse": 2665, "\u2581menigte": 2666, "\u2581El": 2667, "\u2581established": 2668, "\u2581presence": 2669, "\u2581society": 2670, "\u2581positive": 2671, "\u2581wine": 2672, "\u2581hoog": 2673, "\u2581vasbeslote": 2674, "ial": 2675, "\u2581goud": 2676, "\u2581elder": 2677, "\u2581ransom": 2678, "\u2581completely": 2679, "\u2581earthly": 2680, "\u2581optree": 2681, "\u2581hemele": 2682, "\u2581security": 2683, "\u2581redding": 2684, "\u2581sex": 2685, "\u2581Help": 2686, "\u2581harmony": 2687, "\u2581spent": 2688, "\u2581binnekort": 2689, "\u2581c": 2690, "\u2581spoken": 2691, "\u2581greatest": 2692, "\u2581yourselves": 2693, "ka": 2694, "\u2581Kort": 2695, "\u2581verrig": 2696, "\u2581doop": 2697, "\u2581send": 2698, "\u2581active": 2699, "\u2581encouraged": 2700, "\u2581sing": 2701, "\u2581Use": 2702, "\u2581treatment": 2703, "\u2581Perhaps": 2704, "\u2581besluite": 2705, "\u2581roep": 2706, "\u2581Evolution": 2707, "\u2581gevolglik": 2708, "\u2581destroyed": 2709, "\u2581general": 2710, "\u2581president": 2711, "\u2581condition": 2712, "ent": 2713, "\u2581Also": 2714, "\u2581enjoyed": 2715, "\u2581Error": 2716, "\u2581expression": 2717, "\u2581population": 2718, "\u2581developed": 2719, "\u2581produce": 2720, "\u2581practical": 2721, "\u2581gone": 2722, "\u2581Onthou": 2723, "\u2581Australia": 2724, "\u2581gered": 2725, "\u2581paradise": 2726, "\u2581imitate": 2727, "go": 2728, "\u2581commanded": 2729, "\u2581spend": 2730, "ment": 2731, "\u2581Me": 2732, "\u2581showing": 2733, "\u2581verklaar": 2734, "\u2581walking": 2735, "\u2581Joshua": 2736, "\u2581gode": 2737, "\u2581Good": 2738, "\u2581daarmee": 2739, "If": 2740, "\u258120,": 2741, "\u2581aanhou": 2742, "\u2581alive": 2743, "\u2581goes": 2744, "\u2581opregte": 2745, "\u2581Add": 2746, "\u2581notes": 2747, "\u2581Young": 2748, "\u2581immediately": 2749, "\u2581herinner": 2750, "\u2581spread": 2751, "\u2581Footnotes": 2752, "\u2581fulfillment": 2753, "\u2581gereed": 2754, "\u2581onlangs": 2755, "\u2581Koninkryksaal": 2756, "\u2581homes": 2757, "\u2581member": 2758, "\u2581missionary": 2759, "\u2581Armageddon": 2760, "\u2581front": 2761, "\u2581gebeure": 2762, "\u2581onkreukbaarheid": 2763, "\u258190": 2764, "\u2581blessed": 2765, "\u2581ondersteuning": 2766, "\u2581eweneens": 2767, "\u2581non": 2768, "\u2581provides": 2769, "\u258125.": 2770, "\u2581spoor": 2771, "\u2581baba": 2772, "\u2581professor": 2773, "\u2581vervulling": 2774, "\u2581break": 2775, "\u2581groups": 2776, "\u2581big": 2777, "\u2581concerning": 2778, "\u2581invited": 2779, "\u2581seemed": 2780, "\u2581spesifieke": 2781, "\u2581Children": 2782, "nie": 2783, "\u2581regverdig": 2784, "\u2581saved": 2785, "\u2581verdrukking": 2786, "\u2581Book": 2787, "\u2581dankbaar": 2788, "ine": 2789, "\u2581workers": 2790, "\u2581w\u00eareldwye": 2791, "\u2581court": 2792, "\u2581gawe": 2793, "\u2581verdien": 2794, "ige": 2795, "\u2581adres": 2796, "\u2581vernietiging": 2797, "ah": 2798, "\u2581klas": 2799, "\u2581nearly": 2800, "\u2581sukses": 2801, "\u2581Eve": 2802, "\u2581gel\u00ea": 2803, "\u2581veiligheid": 2804, "\u2581uitgegee": 2805, "\u2581pionier": 2806, "\u2581antwoorde": 2807, "\u2581rein": 2808, "\u2581duisend": 2809, "\u2581town": 2810, "\u2581ry": 2811, "\u2581translation": 2812, "\u2581Jakob": 2813, "\u2581looked": 2814, "\u2581believers": 2815, "\u2581verbaas": 2816, "and": 2817, "\u2581goddelike": 2818, "\u2581materi\u00eble": 2819, "\u2581seed": 2820, "\u2581wyn": 2821, "\u2581final": 2822, "\u2581gesinne": 2823, "\u2581versoek": 2824, "\u2581waarmee": 2825, "\u2581mercy": 2826, "\u2581lesers": 2827, "\u2581success": 2828, "\u2581psalmist": 2829, "\u2581eventually": 2830, "\u258126]": 2831, "\u2581decisions": 2832, "\u2581ontdek": 2833, "\u2581bygewoon": 2834, "\u2581warning": 2835, "\u2581voordele": 2836, "regoor": 2837, "\u2581prepared": 2838, "\u2581studying": 2839, "Do": 2840, "\u2581inside": 2841, "\u2581moeite": 2842, "\u2581--": 2843, "\u2581handel": 2844, "\u2581behaag": 2845, "\u2581obey": 2846, "\u2581vervang": 2847, "\u2581%1$": 2848, "\u2581challenge": 2849, "\u2581daartoe": 2850, "\u2581derhalwe": 2851, "\u2581\u25c6": 2852, "\u2581Brother": 2853, "\u2581Stoor": 2854, "\u2581carried": 2855, "\u2581eeuse": 2856, "\u2581vry": 2857, "\u2581mountain": 2858, "\u2581swak": 2859, "\u2581teruggekeer": 2860, "\u2581weeks": 2861, "\u2581weke": 2862, "\u2581aangestel": 2863, "\u2581Brooklyn": 2864, "\u2581nommer": 2865, "\u2581process": 2866, "\u2581ho\u00ebr": 2867, "\u2581picture": 2868, "\u2581School": 2869, "\u25811990": 2870, "\u2581hoofsaaklik": 2871, "\u2581onlangse": 2872, "\u2581soorte": 2873, "\u2581aangebied": 2874, "\u2581finally": 2875, "\u2581getrek": 2876, "\u2581forward": 2877, "\u2581Over": 2878, "\u2581priester": 2879, "\u2581uitdaging": 2880, "\u2581vertaling": 2881, "\u2581%2$": 2882, "\u2581appear": 2883, "\u2581beperk": 2884, "\u2581discipline": 2885, "ings": 2886, "\u2581boy": 2887, "\u2581test": 2888, "ca": 2889, "\u2581Love": 2890, "au": 2891, "\u2581German": 2892, "ism": 2893, "\u2581fell": 2894, "\u258125]": 2895, "\u2581favor": 2896, "tjie": 2897, "\u258121:": 2898, "\u2581(%": 2899, "\u2581geglo": 2900, "\u2581believed": 2901, "\u2581calls": 2902, "\u2581create": 2903, "\u2581getref": 2904, "\u2581gods": 2905, "\u2581Soon": 2906, "\u2581eight": 2907, "\u2581natuurlike": 2908, "\u2581fight": 2909, "\u2581letters": 2910, "\u2581acts": 2911, "\u2581expect": 2912, "\u2581sedelike": 2913, "\u2581verteenwoordig": 2914, "\u2581respond": 2915, "ag": 2916, "\u258129.": 2917, "\u2581dier": 2918, "\u2581File": 2919, "\u2581gebruike": 2920, "\u2581tevore": 2921, "ti": 2922, "\u2581keuse": 2923, "\u2581student": 2924, "\u2581level": 2925, "\u2581values": 2926, "oor": 2927, "\u2581plaasgevind": 2928, "\u2581Tog": 2929, "\u2581uiters": 2930, "li": 2931, "\u2581emotional": 2932, "\u2581naaste": 2933, "\u2581Other": 2934, "\u2581skuld": 2935, "\u2581writing": 2936, "sal": 2937, "\u2581seeking": 2938, "\u2581standing": 2939, "For": 2940, "\u2581Heilige": 2941, "\u2581Te": 2942, "\u2581progress": 2943, "\u2581toespraak": 2944, "BAR": 2945, "\u2581Save": 2946, "\u2581dokter": 2947, "\u2581doctor": 2948, "\u2581psalmis": 2949, "\u2581ontwerp": 2950, "\u2581actions": 2951, "\u2581kill": 2952, "Read": 2953, "\u2581blind": 2954, "\u2581fulfilled": 2955, "\u2581USA": 2956, "\u2581W\u00eareldoorlog": 2957, "\u2581although": 2958, "\u2581assignment": 2959, "\u2581mee": 2960, "\u2581Inc": 2961, "\u2581geweier": 2962, "\u2581shal": 2963, "\u2581species": 2964, "\u2581verhoor": 2965, "\u2581nietemin": 2966, "\u2581Take": 2967, "\u2581growing": 2968, "\u2581stap": 2969, "\u2581sword": 2970, "\u2581baby": 2971, "\u2581beliefs": 2972, "\u2581behavior": 2973, "\u2581prayed": 2974, "Lees": 2975, "\u2581Australi\u00eb": 2976, "\u2581Ephesians": 2977, "\u2581hout": 2978, "\u2581sleg": 2979, "\u2581Each": 2980, "\u2581due": 2981, "\u2581whatever": 2982, "\u2581wait": 2983, "\u2581300": 2984, "\u2581Efesi\u00ebrs": 2985, "\u2581animal": 2986, "\u2581meisie": 2987, "\u2581swaard": 2988, "org": 2989, "\u2581wild": 2990, "\u2581KDE": 2991, "\u2581moenie": 2992, "\u2581High": 2993, "\u2581indien": 2994, "ER": 2995, "mi": 2996, "\u2581Sea": 2997, "\u2581watch": 2998, "teks": 2999, "\u2581engel": 3000, "\u2581express": 3001, "\u2581info": 3002, "\u2581late": 3003, "\u2581Frankryk": 3004, "\u2581History": 3005, "\u2581behoefte": 3006, "\u2581Markus": 3007, "\u2581computer": 3008, "\u2581radio": 3009, "\u2581Black": 3010, "\u2581dooies": 3011, "\u2581Exodus": 3012, "\u2581vo\u00ebls": 3013, "all": 3014, "ga": 3015, "\u2581chosen": 3016, "\u2581mental": 3017, "\u2581terugkeer": 3018, "\u2581gestaan": 3019, "\u2581traveling": 3020, "\u2581explain": 3021, "\u2581verdere": 3022, "\u2581England": 3023, "\u2581oral": 3024, "\u2581Bybelse": 3025, "\u2581reeks": 3026, "\u2581rig": 3027, "7": 3028, "ian": 3029, "\u2581De": 3030, "\u2581personality": 3031, "\u2581recently": 3032, "\u2581patient": 3033, "?\"": 3034, "\u2581African": 3035, "\u2581prevent": 3036, "\u2581gewys": 3037, "\u2581guns": 3038, "\u2581hang": 3039, "\u2581teacher": 3040, "\u2581Remember": 3041, "\u2581geleenthede": 3042, "\u258165": 3043, "\u2581benefits": 3044, "\u2581dui": 3045, "\u2581gerig": 3046, "\u2581Two": 3047, "\u2581keeping": 3048, "\u2581style": 3049, "\u2581vernaamste": 3050, "\u2581abuse": 3051, "mo": 3052, "\u25819]": 3053, "\u2581Paradise": 3054, "\u2581eating": 3055, "\u2581slaaf": 3056, "\u2581gewaarsku": 3057, "\u2581spyte": 3058, "ish": 3059, "id": 3060, "\u2581drugs": 3061, "\u2581step": 3062, "\u2581choice": 3063, "\u2581plaasvind": 3064, "\u2581suffered": 3065, "\u258118]": 3066, "\u2581fathers": 3067, "\u2581kragtige": 3068, "\u2581onderhou": 3069, "\u2581daarby": 3070, "\u2581jouself": 3071, "\u2581Us": 3072, "\u2581verby": 3073, "\u2581View": 3074, "\u2581hiervan": 3075, "\u2581knowing": 3076, "\u2581emosionele": 3077, "\u2581protection": 3078, "\u2581evening": 3079, "\u2581Bo": 3080, "\u2581Encyclopedia": 3081, "\u2581Neem": 3082, "\u2581French": 3083, "\u2581main": 3084, "\u2581meant": 3085, "\u2581observed": 3086, "\u2581oomblik": 3087, "\u2581ophou": 3088, "\u2581genees": 3089, "\u2581flock": 3090, "\u2581idee": 3091, "\u2581oggend": 3092, "\u2581sodoende": 3093, "\u258124,": 3094, "\u2581Christianity": 3095, "\u2581aangeneem": 3096, "\u2581bygevoeg": 3097, "\u2581vision": 3098, "\u2581persoonlikheid": 3099, "\u2581winter": 3100, "\u2581Skep": 3101, "\u2581vrug": 3102, "\u2581dr": 3103, "\u2581toekomstige": 3104, "io": 3105, "\u2581brand": 3106, "\u2581missionaries": 3107, "\u2581series": 3108, "\u2581minutes": 3109, "\u2581algemene": 3110, "\u2581kosbare": 3111, "\u2581occurred": 3112, "\u2581scientists": 3113, "\u2581godvrugtige": 3114, "\u2581moves": 3115, "\u2581verminder": 3116, "\u2581voete": 3117, "\u2581wives": 3118, "\u2581China": 3119, "9": 3120, "\u2581sendelinge": 3121, "\u2581span": 3122, "\u00e1": 3123, "\u2581mooi": 3124, "\u2581army": 3125, "\u2581navolg": 3126, "\u2581agt": 3127, "\u2581beskerming": 3128, "\u2581Josua": 3129, "\u2581verlos": 3130, "\u25810": 3131, "\u2581interests": 3132, "\u2581behold": 3133, "\u2581gemeld": 3134, "\u2581betrekking": 3135, "\u2581low": 3136, "8": 3137, "Laat": 3138, "See": 3139, "\u2581declared": 3140, "\u2581lewenswyse": 3141, "lose": 3142, "ol": 3143, "\u2581heelal": 3144, "\u2581wakker": 3145, "\u2581veroordeel": 3146, "\u2581birds": 3147, "\u2581dorp": 3148, "\u2581olie": 3149, "\u2581causes": 3150, "Let": 3151, "\u25812000": 3152, "\u2581Mount": 3153, "\u2581bewyse": 3154, "\u2581goal": 3155, "\u2581geluister": 3156, "\u2581langer": 3157, "\u2581contains": 3158, "\u2581genooi": 3159, "em": 3160, "\u2581check": 3161, "\u2581haal": 3162, "\u2581loss": 3163, "\u2581firm": 3164, "\u2581note": 3165, "\u2581steps": 3166, "\u2581twyfel": 3167, "\u2581lie": 3168, "\u2581verandering": 3169, "\u258137:": 3170, "\u2581Version": 3171, "\u2581mis": 3172, "\u2581waarvoor": 3173, "\u2581battle": 3174, "\u2581foto": 3175, "\u2581sort": 3176, "\u2581heer": 3177, "\u2581Messiah": 3178, "\u2581island": 3179, "\u2581News": 3180, "\u2581endure": 3181, "\u2581forget": 3182, "\u2581manner": 3183, "\u2581Eden": 3184, "\u2581dedicated": 3185, "\u2581pure": 3186, "\u2581safe": 3187, "\u2581easily": 3188, "\u2581environment": 3189, "\u2581takkantoor": 3190, "espite": 3191, "\u2581application": 3192, "\u2581versigtig": 3193, "\u2581Messias": 3194, "\u2581lewende": 3195, "\u2581strengthen": 3196, "een": 3197, "\u2581Gee": 3198, "\u2581heavy": 3199, "\u2581exist": 3200, "\u2581standpunt": 3201, "\u258128.": 3202, "\u2581judge": 3203, "\u2581maat": 3204, "\u258145": 3205, "\u2581besorg": 3206, "\u2581publication": 3207, "\u2581skare": 3208, "\u2581Nazi": 3209, "\u2581devotion": 3210, "\u2581visited": 3211, "\u2581praktiese": 3212, "\u2581University": 3213, "\u2581danger": 3214, "\u258110]": 3215, "\u2581particularly": 3216, "\u2581Korinthi\u00ebrs": 3217, "\u2581opening": 3218, "\u2581encourage": 3219, "\u2581ahead": 3220, "ha": 3221, "\u2581reached": 3222, "\u2581returns": 3223, "\u2581adds": 3224, "\u2581verheug": 3225, "\u2581amount": 3226, "\u2581road": 3227, "\u2581voorheen": 3228, "\u2581research": 3229, "\u2581wetenskaplikes": 3230, "\u2581assigned": 3231, "\u2581deeply": 3232, "\u258128:": 3233, "\u2581gedra": 3234, "\u2581bome": 3235, "\u2581contrast": 3236, "\u2581res": 3237, "ring": 3238, "\u2581AIDS": 3239, "\u2581bevind": 3240, "\u2581heers": 3241, "\u2581military": 3242, "\u2581nuttig": 3243, "\u2581guidance": 3244, "\u2581expressed": 3245, "\u2581popular": 3246, "\u2581seeing": 3247, "\u2581story": 3248, "\u2581unique": 3249, "\u2581authorities": 3250, "\u2581opleiding": 3251, "\u2581basic": 3252, "hether": 3253, "\u2581carefully": 3254, "\u2581relative": 3255, "\u2581enigiemand": 3256, "\u2581gese\u00ebn": 3257, "\u2581brings": 3258, "\u2581relief": 3259, "He": 3260, "\u2581treat": 3261, "\u2581chief": 3262, "\u2581skuif": 3263, "sy": 3264, "\u2581sacred": 3265, "ant": 3266, "\u2581Through": 3267, "\u2581hospitaal": 3268, "\u2581prophets": 3269, "\u2581rejoice": 3270, "\u2581space": 3271, "\u2581realized": 3272, "\u2581verstandig": 3273, "\u2581aanbidders": 3274, "\u2581amper": 3275, "\u2581police": 3276, "\u2581doodgemaak": 3277, "\u2581location": 3278, "\u2581profete": 3279, "\u2581CD": 3280, "\u2581India": 3281, "\u2581add": 3282, "\u2581stood": 3283, "by": 3284, "\u2581eenvoudige": 3285, "\u2581waardes": 3286, "\u2581veilig": 3287, "\u2581vertroosting": 3288, "\u2581berge": 3289, "\u2581geplaas": 3290, "\u2581points": 3291, "\u2581stress": 3292, "ir": 3293, "\u2581humble": 3294, "\u2581leef": 3295, "\u2581universe": 3296, "\u2581Gees": 3297, "\u2581box": 3298, "\u2581increased": 3299, "\u2581across": 3300, "\u2581beproewinge": 3301, "\u2581household": 3302, "\u2581lay": 3303, "\u2581kommunikasie": 3304, "\u2581positiewe": 3305, "van": 3306, "\u2581Comment": 3307, "\u2581opgeteken": 3308, "\u2581rekenaar": 3309, "ko": 3310, "\u2581energie": 3311, "\u2581energy": 3312, "\u2581neighbor": 3313, "\u2581total": 3314, "\u2581steek": 3315, "\u258121,": 3316, "\u2581placed": 3317, "\u2581waarsku": 3318, "one": 3319, "wa": 3320, "\u2581Similarly": 3321, "\u2581Should": 3322, "\u2581arms": 3323, "\u2581fill": 3324, "\u2581inhabitants": 3325, "\u2581vooruitgang": 3326, "\u2581Drie": 3327, "\u2581brain": 3328, "\u2581produced": 3329, "\u2581tribulation": 3330, "\u2581Its": 3331, "\u2581normal": 3332, "\u2581verkies": 3333, "\u2581Pa": 3334, "\u2581destyds": 3335, "\u2581courage": 3336, "\u2581none": 3337, "\u2581destroy": 3338, "\u2581feitlik": 3339, "\u2581item": 3340, "\u2581IS": 3341, "\u2581gathered": 3342, "so": 3343, "\u2581ge\u00efnspireerde": 3344, "\u2581grondslag": 3345, "\u258131.": 3346, "\u2581dedication": 3347, "\u2581helfte": 3348, "\u2581ervaar": 3349, "\u2581getroud": 3350, "\u2581status": 3351, "\u2581tongue": 3352, "\u2581Swart": 3353, "\u2581continues": 3354, "\u2581included": 3355, "\u2581affected": 3356, "\u2581tent": 3357, "\u2581becomes": 3358, "\u2581mode": 3359, "\u2581verdwyn": 3360, "\u2581Soms": 3361, "\u2581foot": 3362, "\u2581leringe": 3363, "\u2581vlug": 3364, "\u2581cover": 3365, "\u2581hundreds": 3366, "\u2581sand": 3367, "\u2581teenwoordigheid": 3368, "\u2581beloftes": 3369, "\u2581option": 3370, "\u2581race": 3371, "\u2581hanteer": 3372, "\u2581international": 3373, "\u2581persecution": 3374, "\u2581preek": 3375, "ler": 3376, "\u2581geliefde": 3377, "\u2581vertrek": 3378, "\u2581weliswaar": 3379, "mer": 3380, "\u2581verstandige": 3381, "\u2581claim": 3382, "\u2581encouragement": 3383, "\u2581slagoffers": 3384, "\u2581waarskuwing": 3385, "\u2581International": 3386, "\u2581Make": 3387, "\u2581Once": 3388, "\u2581fail": 3389, "\u2581items": 3390, "\u2581klaar": 3391, "\u2581art": 3392, "\u2581mark": 3393, "\u2581Y": 3394, "\u2581won": 3395, "\u2581mine": 3396, "\u2581afraid": 3397, "\u2581volhard": 3398, "\u2581internasionale": 3399, "\u2581secret": 3400, "\u2581skriftuurlike": 3401, "\u2581tronk": 3402, "\u2581gereageer": 3403, "\u2581naamlik": 3404, "\u2581Create": 3405, "\u2581reaksie": 3406, "\u2581skrywer": 3407, "\u258142": 3408, "\u2581discovered": 3409, "sel": 3410, "\u00eb": 3411, "\u2581London": 3412, "\u2581dangerous": 3413, "\u2581geskenk": 3414, "\u2581makliker": 3415, "\u2581theme": 3416, "\u2581surely": 3417, "\u2581vervolging": 3418, "\u2581global": 3419, "\u2581crime": 3420, "\u2581(1)": 3421, "\u2581weerspie\u00ebl": 3422, "\u2581aware": 3423, "\u2581stam": 3424, "ist": 3425, "\u2581werd": 3426, "tyd": 3427, "\u2581ongeag": 3428, "\u2581Family": 3429, "\u2581cast": 3430, "\u2581veld": 3431, "\u2581experiences": 3432, "\u2581gespeel": 3433, "\u2581rain": 3434, "\u2581existence": 3435, "\u2581()": 3436, "\u2581draai": 3437, "\u2581responsible": 3438, "\u2581silver": 3439, "\u2581toewysing": 3440, "\u2581despite": 3441, "optional": 3442, "\u2581juiste": 3443, "\u2581background": 3444, "\u2581pioniers": 3445, "\u2581images": 3446, "\u2581belangrikste": 3447, "\u2581economic": 3448, "\u2581ondank": 3449, "\u2581refused": 3450, "\u2581lose": 3451, "\u2581recognize": 3452, "\u2581geestelikes": 3453, "\u2581gesond": 3454, "\u2581mountains": 3455, "\u2581misdaad": 3456, "\u2581asking": 3457, "\u2581Image": 3458, "\u2581bestee": 3459, "\u2581concerned": 3460, "\u2581paradys": 3461, "\u2581talking": 3462, "\u2581verbind": 3463, "\u2581White": 3464, "\u2581dokters": 3465, "\u2581lid": 3466, "\u2581teachers": 3467, "ad": 3468, "\u2581greatly": 3469, "\u2581Engeland": 3470, "\u2581access": 3471, "\u2581desires": 3472, "\u2581limited": 3473, "\u2581mighty": 3474, "\u2581stone": 3475, "\u2581aangemoedig": 3476, "\u2581cope": 3477, "\u2581getal": 3478, "\u25814;": 3479, "\u2581eintlik": 3480, "\u2581behalf": 3481, "\u2581cost": 3482, "\u2581bose": 3483, "\u2581delivered": 3484, "Be": 3485, "\u2581connection": 3486, "\u2581particular": 3487, "\u2581Filter": 3488, "\u2581geneig": 3489, "\u2581overseer": 3490, "\u2581publikasie": 3491, "\u2581berei": 3492, "\u2581geslaan": 3493, "\u2581ingesluit": 3494, "\u2581optrede": 3495, "\u2581trials": 3496, "\u2581vroeg": 3497, "\u2581agtergrond": 3498, "\u2581vers": 3499, "ese": 3500, "men": 3501, "tjies": 3502, "\u2581approach": 3503, "\u2581handhaaf": 3504, "\u2581taak": 3505, "ru": 3506, "ci": 3507, "\u2581afgelope": 3508, "\u2581imperfect": 3509, "\u2581verloop": 3510, "\u2581redelik": 3511, "\u2581response": 3512, "\u258126.": 3513, "\u2581company": 3514, "\u2581translated": 3515, "\u2581village": 3516, "\u2581Tweede": 3517, "\u2581nodige": 3518, "\u2581toets": 3519, "This": 3520, "\u2581aangekom": 3521, "\u2581correct": 3522, "\u2581Twee": 3523, "\u2581ge\u00ebet": 3524, "\u2581specific": 3525, "\u258138": 3526, "tu": 3527, "\u2581midst": 3528, "\u2581navorsing": 3529, "\u2581writer": 3530, "\u2581project": 3531, "baar": 3532, "\u2581leading": 3533, "\u2581requires": 3534, "up": 3535, "\u2581Sa": 3536, "\u2581unity": 3537, "\u2581volke": 3538, "\u2581le\u00ebr": 3539, "\u2581stoor": 3540, "\u2581wide": 3541, "si": 3542, "\u2581appeared": 3543, "\u2581tuis": 3544, "\u2581straf": 3545, "am": 3546, "\u2581Wit": 3547, "\u2581cells": 3548, "\u2581neer": 3549, "\u2581hearing": 3550, "\u2581importance": 3551, "lu": 3552, "\u2581hospital": 3553, "\u2581publishers": 3554, "\u2581wish": 3555, "\u258136": 3556, "\u2581Search": 3557, "\u2581button": 3558, "\u2581natuur": 3559, "\u2581toegewydheid": 3560, "\u2581mere": 3561, "\u2581Asia": 3562, "\u2581attended": 3563, "\u2581below": 3564, "\u2581measure": 3565, "\u2581skuldig": 3566, "za": 3567, "\u2581George": 3568, "\u2581effects": 3569, "\u2581silwer": 3570, "\u2581vul": 3571, "\u2581title": 3572, "\u2581Lot": 3573, "\u2581Come": 3574, "\u2581effective": 3575, "\u2581pre": 3576, "\u2581rise": 3577, "\u2581Finally": 3578, "\u258128,": 3579, "\u2581Augustus": 3580, "\u2581bank": 3581, "\u2581Judas": 3582, "\u2581higher": 3583, "\u2581sacrifices": 3584, "\u2581skade": 3585, "\u2581foute": 3586, "\u2581remove": 3587, "\u2581attack": 3588, "pi": 3589, "\u2581creatures": 3590, "\u2581dwell": 3591, "\u2581remained": 3592, "\u2581streef": 3593, "\u2581suksesvol": 3594, "\u2581conclusion": 3595, "\u2581cry": 3596, "\u2581toorn": 3597, "\u2581European": 3598, "\u2581average": 3599, "ium": 3600, "\u2581Health": 3601, "\u2581bevolking": 3602, "\u2581center": 3603, "\u2581(2)": 3604, "\u2581deliver": 3605, "\u2581guard": 3606, "\u2581tuin": 3607, "\u2581imagine": 3608, "\u2581onderrigting": 3609, "\u2581Goddelike": 3610, "\u2581Verander": 3611, "\u2581gelukkige": 3612, "\u2581publications": 3613, "What": 3614, "\u2581Day": 3615, "\u2581camp": 3616, "\u2581pioneers": 3617, "\u2581vrouens": 3618, "\u2581geheim": 3619, "\u2581principle": 3620, "\u2581Duitse": 3621, "\u2581practices": 3622, "\u2581request": 3623, "\u2581Robert": 3624, "\u2581function": 3625, "\u2581Among": 3626, "\u2581Meer": 3627, "\u2581begeertes": 3628, "\u2581Kanada": 3629, "\u2581godsdienste": 3630, "\u2581root": 3631, "\u2581Voetnote": 3632, "\u2581ekonomiese": 3633, "\u2581verbied": 3634, "\u2581Under": 3635, "\u2581Verder": 3636, "\u2581heilig": 3637, "\u2581poging": 3638, "\u2581Brazil": 3639, "\u2581darkness": 3640, "\u2581gegrond": 3641, "\u2581genuine": 3642, "\u2581weight": 3643, "lig": 3644, "\u2581behalwe": 3645, "\u2581entered": 3646, "\u2581rock": 3647, "\u2581voorberei": 3648, "\u2581agree": 3649, "\u2581empty": 3650, "\u2581spring": 3651, "\u2581Nations": 3652, "\u2581daaglikse": 3653, "\u2581divorce": 3654, "\u2581huweliksmaat": 3655, "\u2581observe": 3656, "\u2581Spain": 3657, "\u2581generation": 3658, "\u2581closer": 3659, "\u2581growth": 3660, "\u2581loof": 3661, "\u2581trane": 3662, "\u2581vaders": 3663, "\u2581Mexico": 3664, "\u2581bywoon": 3665, "\u2581permanent": 3666, "\u2581saad": 3667, "\u00c3": 3668, "\u2581faced": 3669, "ary": 3670, "\u2581Set": 3671, "\u2581paper": 3672, "\u2581worth": 3673, "\u25811997": 3674, "\u2581dogters": 3675, "\u2581viewed": 3676, "\u258127.": 3677, "\u2581Noord": 3678, "\u2581occur": 3679, "\u2581Julie": 3680, "\u2581teenstelling": 3681, "\u2581wetenskap": 3682, "\u2581drug": 3683, "\u2581spel": 3684, "\u2581trots": 3685, "if": 3686, "\u258114;": 3687, "\u25811992": 3688, "\u2581elderly": 3689, "\u2581negative": 3690, "\u2581improve": 3691, "\u2581numbers": 3692, "\u2581sekerlik": 3693, "da": 3694, "\u2581Paradys": 3695, "\u2581beelde": 3696, "\u2581cell": 3697, "\u2581Indi\u00eb": 3698, "sie": 3699, "\u2581Chinese": 3700, "\u2581science": 3701, "\u2581Verwyder": 3702, "\u2581insluit": 3703, "\u2581involves": 3704, "\u2581remains": 3705, "\u2581stadium": 3706, "\u2581Matt": 3707, "\u2581expected": 3708, "\u2581slawe": 3709, "\u2581stof": 3710, "\u2581aangehaal": 3711, "\u2581drinking": 3712, "\u2581Oor": 3713, "\u2581Unable": 3714, "\u2581media": 3715, "\u2581belangriker": 3716, "\u2581reflect": 3717, "\u2581verg": 3718, "\u2581Spirit": 3719, "\u2581doctors": 3720, "\u2581berou": 3721, "\u2581onmoontlik": 3722, "\u2581victims": 3723, "\u2581warned": 3724, "\u2581wetenskaplike": 3725, "\u2581tears": 3726, "\u2581Message": 3727, "\u2581doelwitte": 3728, "\u2581kontak": 3729, "\u2581toepas": 3730, "\u2581verskeidenheid": 3731, "\u2581wille": 3732, "\u2581Asi\u00eb": 3733, "\u2581North": 3734, "\u2581north": 3735, "\u2581Translation": 3736, "\u2581familielede": 3737, "\u2581gebooie": 3738, "\u2581honger": 3739, "\u2581includes": 3740, "\u2581Ezekiel": 3741, "\u2581kneg": 3742, "\u2581consequences": 3743, "\u2581basiese": 3744, "\u2581Desember": 3745, "\u2581accounts": 3746, "\u2581toesig": 3747, "\u2581brein": 3748, "\u2581task": 3749, "Daar": 3750, "Hy": 3751, "\u2581les": 3752, "\u2581appearance": 3753, "\u2581valuable": 3754, "\u2581Esegi\u00ebl": 3755, "\u2581busy": 3756, "\u2581laid": 3757, "\u2581geroep": 3758, "\u2581session": 3759, "\u2581moving": 3760, "\u2581trouble": 3761, "\u2581vis": 3762, "ty": 3763, "\u2581Mei": 3764, "\u2581delight": 3765, "ING": 3766, "\u2581Oktober": 3767, "\u2581affection": 3768, "\u2581vooruitsig": 3769, "\u2581liefh\u00ea": 3770, "\u2581lies": 3771, "AL": 3772, "\u2581d": 3773, "\u2581exists": 3774, "\u2581saith": 3775, "\u2581uitdrukking": 3776, "per": 3777, "\u2581disc": 3778, "\u2581fast": 3779, "\u2581groepe": 3780, "\u2581oorleef": 3781, "\u2581opstand": 3782, "\u2581werklike": 3783, "\u2581be\u00efndruk": 3784, "\u2581grew": 3785, "\u2581rate": 3786, "stelsel": 3787, "\u2581community": 3788, "\u258148": 3789, "\u2581Tot": 3790, "\u2581appears": 3791, "\u2581religions": 3792, "\u2581train": 3793, "\u2581Clearly": 3794, "\u2581Earth": 3795, "\u2581escape": 3796, "\u2581Italy": 3797, "\u2581regeer": 3798, "\u2581titel": 3799, "\u2581violent": 3800, "que": 3801, "\u2581San": 3802, "\u2581attending": 3803, "\u2581forest": 3804, "\u2581sharing": 3805, "Z": 3806, "\u2581setting": 3807, "\u2581overcome": 3808, "\u2581voorstel": 3809, "\u258116]": 3810, "\u2581grootte": 3811, "ous": 3812, "\u2581skin": 3813, "vi": 3814, "\u2581magazines": 3815, "\u258127:": 3816, "\u2581billion": 3817, "\u2581eternal": 3818, "\u2581purposes": 3819, "\u2581putting": 3820, "hi": 3821, "\u258116;": 3822, "\u2581daughters": 3823, "\u258110;": 3824, "\u2581British": 3825, "\u2581harde": 3826, "\u2581listed": 3827, "\u2581Haar": 3828, "\u2581BY": 3829, "\u2581surface": 3830, "ho": 3831, "\u2581Look": 3832, "\u2581Sun": 3833, "\u2581gelewe": 3834, "\u2581reasonable": 3835, "\u2581relatives": 3836, "\u2581skielik": 3837, "\u2581woede": 3838, "\u2581besittings": 3839, "\u2581Titus": 3840, "\u2581geken": 3841, "\u2581storm": 3842, "\u2581wall": 3843, "\u2581Brasili\u00eb": 3844, "\u2581Londen": 3845, "\u2581foreign": 3846, "\u2581negatiewe": 3847, "\u2581toegang": 3848, "\u2581Miskien": 3849, "\u2581nederig": 3850, "\u2581skerp": 3851, "\u25811993": 3852, "\u2581Filippense": 3853, "\u2581alcohol": 3854, "\u2581barmhartigheid": 3855, "\u2581forms": 3856, "\u2581hof": 3857, "\u2581national": 3858, "\u2581seksuele": 3859, "\u2581versoeking": 3860, "\u2581association": 3861, "\u2581discuss": 3862, "\u2581garden": 3863, "\u2581resurrected": 3864, "\u2581toestande": 3865, "\u258113]": 3866, "\u258141": 3867, "\u2581Philippians": 3868, "\u2581Right": 3869, "\u2581Bybelbeginsels": 3870, "\u2581Really": 3871, "Wat": 3872, "\u2581Elijah": 3873, "\u2581lojaal": 3874, "\u2581\"[": 3875, "\u2581focus": 3876, "\u2581maal": 3877, "\u2581troon": 3878, "There": 3879, "age": 3880, "ni": 3881, "out": 3882, "\u2581Readers": 3883, "\u2581cold": 3884, "\u2581vaste": 3885, "\u2581rond": 3886, "\u2581woestyn": 3887, "\u2581Prediker": 3888, "\u2581merely": 3889, "\u2581volkome": 3890, "\u2581Spanje": 3891, "\u2581band": 3892, "\u2581losprys": 3893, "\u2581oorlo\u00eb": 3894, "\u2581Daarop": 3895, "\u2581factors": 3896, "\u2581oplossing": 3897, "\u2581churches": 3898, "\u2581harm": 3899, "\u2581voortgaan": 3900, "\u2581cancer": 3901, "\u2581count": 3902, "\u2581wilderness": 3903, "\u2581mail": 3904, "\u2581rivier": 3905, "\u2581password": 3906, "\u2581presented": 3907, "\u2581urged": 3908, "Jesus": 3909, "\u25811991": 3910, "\u2581gelaat": 3911, "\u2581onsself": 3912, "\u2581prepare": 3913, "\u2581belief": 3914, "\u2581gevorm": 3915, "\u2581August": 3916, "\u2581plante": 3917, "\u2581strek": 3918, "\u2581verheerlik": 3919, "ber": 3920, "ner": 3921, "\u2581Has": 3922, "\u2581moment": 3923, "\u2581travel": 3924, "\u2581gesels": 3925, "\u2581master": 3926, "\u2581ewigheid": 3927, "\u2581river": 3928, "\u2581wars": 3929, "\u2581careful": 3930, "\u2581kerke": 3931, "\u2581vervolg": 3932, "bo": 3933, "\u2581arrangement": 3934, "\u2581Maart": 3935, "\u2581terms": 3936, "\u2581verwelkom": 3937, "\u258130.": 3938, "\u2581Body": 3939, "\u2581Without": 3940, "\u2581examine": 3941, "\u2581services": 3942, "\u2581handle": 3943, "\u2581personally": 3944, "\u2581ywer": 3945, "\u2581VSA": 3946, "\u2581streng": 3947, "ons": 3948, "\u2581forces": 3949, "\u2581truths": 3950, "\u2581uses": 3951, "ate": 3952, "dra": 3953, "\u2581breek": 3954, "\u2581Out": 3955, "\u2581buy": 3956, "\u2581gesonde": 3957, "\u2581tema": 3958, "met": 3959, "\u258133.": 3960, "\u2581convinced": 3961, "\u2581laai": 3962, "\u2581rooi": 3963, "\u2581pleasure": 3964, "\u2581tereg": 3965, "+": 3966, "\u2581Delete": 3967, "\u2581resultate": 3968, "di": 3969, "\u2581Januarie": 3970, "\u2581bringing": 3971, "\u2581studente": 3972, "\u2581Move": 3973, "\u2581issues": 3974, "\u2581aanval": 3975, "\u2581beauty": 3976, "\u2581enemy": 3977, "\u2581uitgespreek": 3978, "pos": 3979, "\u2581insig": 3980, "po": 3981, "\u2581bedek": 3982, "\u2581feite": 3983, "\u2581Every": 3984, "\u2581Timothe\u00fcs": 3985, "\u2581reality": 3986, "\u2581Mother": 3987, "\u2581identifiseer": 3988, "\u2581seks": 3989, "\u2581co": 3990, "\u2581direct": 3991, "\u2581jonk": 3992, "\u2581opposition": 3993, "\u2581plants": 3994, "\u2581rondom": 3995, "\u2581associated": 3996, "\u2581gehoorsaamheid": 3997, "\u2581designed": 3998, "\u2581gifts": 3999, "\u2581bestuur": 4000, "\u2581leaving": 4001, "\u2581oorweeg": 4002, "\u2581Ecclesiastes": 4003, "\u2581Spanish": 4004, "\u2581bespreking": 4005, "\u2581quoted": 4006, "\u2581illustration": 4007, "\u2581polisie": 4008, "\u2581telling": 4009, "\u258135.": 4010, "\u2581skyf": 4011, "\u2581stil": 4012, "etlike": 4013, "\u2581William": 4014, "\u2581ywerig": 4015, "Jy": 4016, "\u2581re\u00ebn": 4017, "ure": 4018, "\u2581East": 4019, "\u2581Hitler": 4020, "\u2581Itali\u00eb": 4021, "\u2581dwelms": 4022, "\u2581goals": 4023, "\u2581ondervindinge": 4024, "\u2581huge": 4025, "\u2581speed": 4026, "\u2581vyand": 4027, "\u2581Professor": 4028, "\u2581dissipline": 4029, "\u2581oorsprong": 4030, "\u2581successful": 4031, "\u2581gesoek": 4032, "\u2581waaroor": 4033, "\u2581Franse": 4034, "\u2581region": 4035, "\u258143": 4036, "\u25815]": 4037, "\u2581broken": 4038, "\u2581preached": 4039, "ow": 4040, "\u2581drawn": 4041, "\u2581gevestig": 4042, "\u2581donker": 4043, "\u2581dorpie": 4044, "When": 4045, "\u2581poverty": 4046, "\u2581Game": 4047, "\u2581Sunday": 4048, "\u2581altar": 4049, "\u2581houses": 4050, "\u2581throne": 4051, "\u2581Eerste": 4052, "\u2581Un": 4053, "\u2581hurt": 4054, "\u2581Lok": 4055, "\u2581bymekaar": 4056, "\u2581gevangenes": 4057, "\u2581lesson": 4058, "\u2581Next": 4059, "\u2581lof": 4060, "\u2581tong": 4061, "\u2581verlig": 4062, "Julle": 4063, "\u25811995": 4064, "\u2581communication": 4065, "\u2581Mens": 4066, "\u2581survive": 4067, "\u2581toewyding": 4068, "\u2581Number": 4069, "\u2581developing": 4070, "\u2581formed": 4071, "\u2581panel": 4072, "\u2581reward": 4073, "j": 4074, "nes": 4075, "\u2581regerings": 4076, "\u2581Am": 4077, "\u2581JEHOVAH": 4078, "\u2581faktore": 4079, "\u2581illness": 4080, "\u2581Color": 4081, "\u2581b": 4082, "\u2581forgive": 4083, "\u2581verslae": 4084, "AN": 4085, "ba": 4086, "\u2581grateful": 4087, "\u2581straat": 4088, "\u2581younger": 4089, "color": 4090, "\u2581describes": 4091, "\u2581territory": 4092, "\u2581Michael": 4093, "\u2581legal": 4094, "\u2581stuk": 4095, "\u2581tref": 4096, "\u2581tydskrifte": 4097, "\u2581vermaak": 4098, "\u2581wagwoord": 4099, "\u2581versamel": 4100, "\u2581gevare": 4101, "Vergelyk": 4102, "\u2581financial": 4103, "\u2581site": 4104, "\u2581vestig": 4105, "\u2581Page": 4106, "\u2581comments": 4107, "\u2581join": 4108, "\u2581vriendskap": 4109, "\u2581Co": 4110, "\u2581covered": 4111, "\u2581listening": 4112, "\u2581uitstekende": 4113, "\u2581verenig": 4114, "dag": 4115, "\u2581Uiteindelik": 4116, "\u2581sterre": 4117, "deur": 4118, "ier": 4119, "\u2581Europese": 4120, "\u2581Lo": 4121, "\u2581cultivate": 4122, "\u2581male": 4123, "\u258112;": 4124, "\u2581committed": 4125, "\u2581klaarblyklik": 4126, "\u2581voorgestel": 4127, "\u2581Junie": 4128, "\u2581PAGE": 4129, "\u2581alkohol": 4130, "\u2581details": 4131, "\u2581running": 4132, "\u2581wen": 4133, "\u2581Geskrifte": 4134, "\u2581girls": 4135, "\u2581volharding": 4136, "Compare": 4137, "\u2581oorsaak": 4138, "EN": 4139, "\u2581Cannot": 4140, "\u2581official": 4141, "\u2581shepherd": 4142, "\u2581voet": 4143, "\u2581yes": 4144, "\u2581indicate": 4145, "\u2581werkers": 4146, "\u2581BLADSY": 4147, "\u2581paneel": 4148, "\u2581Biblical": 4149, "\u2581March": 4150, "\u2581capital": 4151, "\u2581tipe": 4152, "\u2581vast": 4153, "\u2581besonderhede": 4154, "\u2581situasies": 4155, "\u2581verlore": 4156, "\u2581hetsy": 4157, "\u2581memory": 4158, "\u2581stappe": 4159, "\u2581dadelik": 4160, "\u2581vlieg": 4161, "\u2581Display": 4162, "\u2581Sometimes": 4163, "\u2581hair": 4164, "\u2581situations": 4165, "\u25813;": 4166, "\u258117;": 4167, "\u2581Sou": 4168, "\u2581applied": 4169, "\u2581gemeentelike": 4170, "\u2581projek": 4171, "\u2581voorkoms": 4172, "\u2581waarna": 4173, "\u2581December": 4174, "\u2581Thank": 4175, "\u2581discussion": 4176, "\u2581extent": 4177, "\u2581anti": 4178, "\u2581bevry": 4179, "\u2581vel": 4180, "genootskap": 4181, "\u2581armoede": 4182, "\u2581hot": 4183, "\u2581private": 4184, "\u2581acceptable": 4185, "\u2581Elia": 4186, "\u2581reveal": 4187, "\u2581vertroos": 4188, "\u2581Parents": 4189, "\u2581Ra": 4190, "\u2581insluitende": 4191, "\u2581wealth": 4192, "\u2581notice": 4193, "\u2581powers": 4194, "\u2581ruler": 4195, "\u2581wilde": 4196, "\u2581w\u00eareldwyd": 4197, "ina": 4198, "ut": 4199, "\u2581construction": 4200, "\u2581volwassenes": 4201, "\u2581deelneem": 4202, "\u2581guide": 4203, "\u2581referred": 4204, "\u2581s\u00f3": 4205, "\u2581Change": 4206, "\u2581medegelowiges": 4207, "\u2581unieke": 4208, "\u2581welcome": 4209, "des": 4210, "\u2581October": 4211, "\u2581waiting": 4212, "\u2581Isaac": 4213, "\u2581kweek": 4214, "i\u00eb": 4215, "\u2581prophecies": 4216, "\u2581W\u00eareld": 4217, "\u2581understood": 4218, "\u2581vigs": 4219, "\u2581Journal": 4220, "\u2581commandments": 4221, "\u2581AS": 4222, "\u2581bejaarde": 4223, "\u2581diseases": 4224, "\u2581bitter": 4225, "\u2581hoogte": 4226, "\u2581weier": 4227, "tra": 4228, "\u2581Work": 4229, "\u2581table": 4230, "\u2581soldate": 4231, "\u2581vanaf": 4232, "\u2581Vergelyk": 4233, "\u2581onderskei": 4234, "\u25816]": 4235, "\u2581Being": 4236, "\u2581depression": 4237, "\u2581impressed": 4238, "\u2581milit\u00eare": 4239, "\u2581writes": 4240, "\u2581duidelike": 4241, "\u2581lektuur": 4242, "\u2581minds": 4243, "for": 4244, "\u2581joined": 4245, "\u2581medelye": 4246, "\u2581Blurb": 4247, "\u2581gas": 4248, "\u2581statement": 4249, "\u2581materiaal": 4250, "\u2581muur": 4251, "\u2581weerstaan": 4252, "\u2581West": 4253, "\u2581gang": 4254, "\u2581stopped": 4255, "\u2581Farise\u00ebrs": 4256, "\u2581grootliks": 4257, "\u2581ruimte": 4258, "\u2581vaar": 4259, "\u2581Pharisees": 4260, "\u2581duisternis": 4261, "\u2581Furthermore": 4262, "ale": 4263, "va": 4264, "was": 4265, "\u2581Mar": 4266, "\u2581conversation": 4267, "\u2581gooi": 4268, "\u2581sought": 4269, "\u2581400": 4270, "\u2581Britain": 4271, "\u2581DEUR": 4272, "\u2581hartseer": 4273, "\u2581Note": 4274, "\u2581advantage": 4275, "\u2581gele\u00eb": 4276, "\u2581consideration": 4277, "\u2581leaves": 4278, "\u2581speletjie": 4279, "\u2581version": 4280, "\u2581virus": 4281, "\u2581selfbeheersing": 4282, "\u2581user": 4283, "amate": 4284, "\u258139": 4285, "\u2581Nama": 4286, "\u2581Tyd": 4287, "\u2581gratis": 4288, "\u2581hate": 4289, "\u2581links": 4290, "\u2581healthy": 4291, "\u2581server": 4292, "\u2581decades": 4293, "\u2581Pharaoh": 4294, "\u2581damage": 4295, "\u2581nine": 4296, "\u2581opsig": 4297, "\u2581uitgevind": 4298, "\u2581demons": 4299, "\u2581inhou": 4300, "\u2581600": 4301, "\u2581Doen": 4302, "\u2581object": 4303, "\u2581River": 4304, "\u2581gebeurtenis": 4305, "\u2581jonger": 4306, "\u2581re\u00ebl": 4307, "\u2581vereistes": 4308, "ng": 4309, "\u2581moderne": 4310, "\u2581encouraging": 4311, "RE": 4312, "\u2581Mo": 4313, "\u2581bodies": 4314, "\u2581gedruk": 4315, "\u2581uitdagings": 4316, "\u2581voldoen": 4317, "unit": 4318, "\u258123,": 4319, "\u2581prospect": 4320, "\u2581sat": 4321, "\u2581verligting": 4322, "\u2581bes": 4323, "\u2581eilande": 4324, "\u2581honderde": 4325, "\u2581manifest": 4326, "\u2581m\u00f4re": 4327, "\u2581obedient": 4328, "\u2581secular": 4329, "\u2581Brittanje": 4330, "\u2581wood": 4331, "ris": 4332, "\u2581aside": 4333, "\u2581previous": 4334, "\u2581sosiale": 4335, "tic": 4336, "\u2581queen": 4337, "\u2581removed": 4338, "\u2581unable": 4339, "\u2581verkeer": 4340, "ite": 4341, "\u2581Get": 4342, "\u2581Weens": 4343, "\u2581circuit": 4344, "\u2581oorvloed": 4345, "\u258137": 4346, "\u2581loyalty": 4347, "\u2581path": 4348, "\u2581tevrede": 4349, "\u2581w": 4350, "\u2581successfully": 4351, "\u2581Behold": 4352, "\u2581Ook": 4353, "\u2581played": 4354, "\u2581severe": 4355, "agtige": 4356, "\u2581gemeen": 4357, "\u2581obedience": 4358, "\u2581Farao": 4359, "\u2581kampe": 4360, "\u2581kus": 4361, "\u2581nederigheid": 4362, "\u2581organized": 4363, "water": 4364, "\u2581aspekte": 4365, "\u2581hast": 4366, "\u2581helpful": 4367, "\u2581stars": 4368, "\u2581useful": 4369, "\u2581Almal": 4370, "\u2581Beskou": 4371, "\u2581difference": 4372, "\u2581regtig": 4373, "\u2581development": 4374, "eg": 4375, "\u2581Paar": 4376, "\u2581altaar": 4377, "\u2581dekades": 4378, "\u2581150": 4379, "\u2581vervoer": 4380, "\u2581instruction": 4381, "\u2581pattern": 4382, "\u2581Mexiko": 4383, "\u2581scientific": 4384, "\u2581seriously": 4385, "ug": 4386, "\u2581gewoonte": 4387, "\u2581hare": 4388, "ep": 4389, "\u2581Text": 4390, "\u2581sport": 4391, "\u2581friendship": 4392, "\u2581harvest": 4393, "\u2581verkondigers": 4394, "\u2581Peace": 4395, "\u2581perform": 4396, "\u2581Folder": 4397, "\u2581likewise": 4398, "\u2581opgehou": 4399, "\u2581supply": 4400, "\u2581Ben": 4401, "\u2581gretig": 4402, "\u2581load": 4403, "\u2581beskrywing": 4404, "\u2581humility": 4405, "\u2581miljard": 4406, "\u2581slag": 4407, "ai": 4408, "\u2581compassion": 4409, "\u2581opreg": 4410, "\u2581koste": 4411, "\u2581regs": 4412, "\u2581trained": 4413, "\u258121]": 4414, "\u2581depressie": 4415, "\u2581impossible": 4416, "\u2581surprise": 4417, "\u2581Druk": 4418, "\u2581Ps": 4419, "\u2581Simon": 4420, "\u2581aid": 4421, "\u2581oorkom": 4422, "\u2581Questions": 4423, "\u2581gevangenis": 4424, "\u2581pursue": 4425, "\u2581thank": 4426, "\u2581(\"": 4427, "\u2581geduldig": 4428, "\u2581ongeregtigheid": 4429, "\u2581S\u00ea": 4430, "\u2581elk": 4431, "\u2581essential": 4432, "\u2581host": 4433, "\u2581riches": 4434, "\u2581Faith": 4435, "\u2581January": 4436, "\u2581assembly": 4437, "\u2581bekommerd": 4438, "\u2581meal": 4439, "\u2581recognized": 4440, "\u2581variety": 4441, "\u2581Galatians": 4442, "ron": 4443, "\u2581disciple": 4444, "\u2581easier": 4445, "\u2581noukeurig": 4446, "\u2581opvoeding": 4447, "\u2581Goeie": 4448, "\u2581caring": 4449, "\u2581endurance": 4450, "\u2581patients": 4451, "\u2581tel": 4452, "IN": 4453, "\u2581Galasi\u00ebrs": 4454, "\u2581goedkeuring": 4455, "\u2581studied": 4456, "\u2581treated": 4457, "ery": 4458, "\u2581Stuur": 4459, "\u2581beginsel": 4460, "\u2581concluded": 4461, "\u2581kudde": 4462, "\u2581skat": 4463, "\u2581toegeneem": 4464, "\u2581Judea": 4465, "\u2581datum": 4466, "\u2581estimated": 4467, "\u2581dry": 4468, "\u2581evident": 4469, "\u2581laer": 4470, "\u2581misbruik": 4471, "\u2581south": 4472, "\u00ed": 4473, "\u2581Deuteronomium": 4474, "\u2581Deuteronomy": 4475, "\u2581June": 4476, "\u2581ship": 4477, "\u2581sincere": 4478, "lin": 4479, "ten": 4480, "\u2581d\u00edt": 4481, "\u2581gate": 4482, "\u2581publikasies": 4483, "\u2581Soek": 4484, "\u2581gely": 4485, "All": 4486, "\u2581Pro": 4487, "\u2581directly": 4488, "\u2581doelwit": 4489, "\u2581gevolgtrekking": 4490, "\u2581raise": 4491, "\u2581worse": 4492, "\u2581droom": 4493, "\u2581neighbors": 4494, "\u2581television": 4495, "\u2581views": 4496, "\u2581TO": 4497, "\u2581las": 4498, "\u2581struck": 4499, "\u2581uitvoer": 4500, "line": 4501, "\u2581opgetree": 4502, "\u2581besorgdheid": 4503, "\u2581lojaliteit": 4504, "\u2581released": 4505, "\u2581(3)": 4506, "\u2581grown": 4507, "\u2581opgemerk": 4508, "\u2581rigting": 4509, "\u2581shared": 4510, "\u2581besonder": 4511, "\u2581challenges": 4512, "\u2581intense": 4513, "\u2581maan": 4514, "\u2581nogtans": 4515, "\u2581promote": 4516, "\u2581Both": 4517, "\u2581clergy": 4518, "\u2581distress": 4519, "\u2581planet": 4520, "\u2581street": 4521, "\u2581supported": 4522, "\u2581adults": 4523, "\u2581bus": 4524, "\u2581gewillig": 4525, "\u2581pro": 4526, "\u2581slow": 4527, "\u2581standard": 4528, "\u2581Se": 4529, "\u2581ill": 4530, "\u2581walked": 4531, "\u2581forced": 4532, "\u2581tribe": 4533, "\u2581Colossians": 4534, "\u2581immorality": 4535, "\u2581obtain": 4536, "\u2581worshipers": 4537, "\u2581Photo": 4538, "\u2581apart": 4539, "\u2581punte": 4540, "asie": 4541, "groot": 4542, "\u2581Kolossense": 4543, "\u2581blyk": 4544, "\u2581proses": 4545, "\u2581song": 4546, "\u2581bless": 4547, "\u2581Kleur": 4548, "\u2581abundance": 4549, "\u2581governments": 4550, "\u2581Charles": 4551, "\u2581chose": 4552, "\u2581gepubliseer": 4553, "\u2581goedheid": 4554, "\u2581identify": 4555, "\u2581model": 4556, "\u2581skyn": 4557, "les": 4558, "\u25812002": 4559, "\u2581Benjamin": 4560, "\u2581daaruit": 4561, "\u2581description": 4562, "\u2581pasi\u00ebnt": 4563, "\u2581spraak": 4564, "\u2581herself": 4565, "\u2581length": 4566, "\u2581Compare": 4567, "\u2581Ko": 4568, "\u2581finished": 4569, "\u2581liefdevol": 4570, "\u2581sending": 4571, "\u2581anxiety": 4572, "\u2581contain": 4573, "\u2581device": 4574, "\u2581fulfill": 4575, "\u2581inheritance": 4576, "\u25811919": 4577, "\u2581List": 4578, "\u2581UN": 4579, "\u2581Up": 4580, "\u2581discussed": 4581, "\u2581Memorial": 4582, "\u2581content": 4583, "\u2581immoral": 4584, "\u2581Abel": 4585, "\u2581Slegs": 4586, "\u2581Z": 4587, "\u2581dust": 4588, "\u2581reign": 4589, "\u2581tesame": 4590, "\u2581belangstel": 4591, "\u2581soldiers": 4592, "\u2581Alice": 4593, "\u2581custom": 4594, "\u2581persoonlik": 4595, "\u2581Latin": 4596, "\u2581alarm": 4597, "\u2581EN": 4598, "\u2581behaal": 4599, "\u2581ideas": 4600, "\u2581rights": 4601, "eer": 4602, "\u25818]": 4603, "\u2581archive": 4604, "\u2581Bybelstudente": 4605, "\u2581Grote": 4606, "\u2581Service": 4607, "\u2581finansi\u00eble": 4608, "\u2581veilige": 4609, "\u2581verhaal": 4610, "\u2581emosies": 4611, "\u2581highly": 4612, "\u2581outstanding": 4613, "\u2581demone": 4614, "\u2581lyn": 4615, "tiese": 4616, "\u2581Tract": 4617, "\u2581dark": 4618, "\u2581mening": 4619, "\u2581nege": 4620, "\u2581photo": 4621, "\u2581tekste": 4622, "\u2581troubled": 4623, "\u2581Dankie": 4624, "\u2581describe": 4625, "\u2581facts": 4626, "\u2581graf": 4627, "\u2581July": 4628, "\u2581complex": 4629, "\u2581magtige": 4630, "\u2581contrary": 4631, "\u2581drive": 4632, "\u2581forgiveness": 4633, "\u2581iron": 4634, "\u2581ministers": 4635, "\u2581nee": 4636, "\u2581oorgedra": 4637, "\u2581slaves": 4638, "\u2581vermaan": 4639, "af": 4640, "\u2581carrying": 4641, "\u2581mature": 4642, "\u2581witnessing": 4643, "tro": 4644, "ven": 4645, "\u2581Key": 4646, "\u2581Pi": 4647, "\u2581Probeer": 4648, "\u2581completed": 4649, "\u2581emotions": 4650, "con": 4651, "my": 4652, "\u2581\"\"": 4653, "\u2581causing": 4654, "\u2581evidently": 4655, "\u2581lines": 4656, "\u2581performed": 4657, "\u2581gesluit": 4658, "\u2581Hav": 4659, "\u2581argief": 4660, "\u258132.": 4661, "\u2581Christmas": 4662, "\u2581interessant": 4663, "\u2581patience": 4664, "\u2581screen": 4665, "\u2581skakel": 4666, "\u2581steun": 4667, "\u2581Anna": 4668, "\u2581WAT": 4669, "\u2581ears": 4670, "\u2581indicates": 4671, "\u2581balance": 4672, "\u2581geheel": 4673, "\u2581ruin": 4674, "\u2581rejected": 4675, "\u2581Japanese": 4676, "\u2581displayed": 4677, "\u2581operation": 4678, "\u2581daad": 4679, "\u2581gebaseer": 4680, "\u2581\u00f3f": 4681, "min": 4682, "\u2581caught": 4683, "\u2581illustrasie": 4684, "\u2581individue": 4685, "\u2581klip": 4686, "\u2581skenk": 4687, "\u2581vlak": 4688, "\u2581Jongmense": 4689, "\u2581decide": 4690, "\u2581eienskap": 4691, "\u2581offspring": 4692, "\u2581pasi\u00ebnte": 4693, "tor": 4694, "\u2581store": 4695, "\u2581valid": 4696, "\u2581verbrand": 4697, "\u2581zeal": 4698, "\u2581beloved": 4699, "\u2581offers": 4700, "\u2581paid": 4701, "naam": 4702, "tel": 4703, "\u2581Governing": 4704, "\u2581gevaarlik": 4705, "\u2581grade": 4706, "\u2581planeet": 4707, "ap": 4708, "\u2581Free": 4709, "\u2581geduld": 4710, "\u2581voormalige": 4711, "\u2581Bestuursliggaam": 4712, "\u2581journey": 4713, "\u2581require": 4714, "\u2581round": 4715, "\u2581speaks": 4716, "\u2581Surely": 4717, "\u2581exactly": 4718, "\u2581herder": 4719, "\u2581react": 4720, "\u00f3": 4721, "\u2581Remove": 4722, "\u2581overseers": 4723, "\u2581bewoon": 4724, "\u2581gelewer": 4725, "\u2581thanks": 4726, "\u2581verdedig": 4727, "\u2581verslaan": 4728, "\u2581Red": 4729, "\u2581Ware": 4730, "\u2581accomplish": 4731, "\u2581pieces": 4732, "\u2581pride": 4733, "\u2581Begin": 4734, "\u2581General": 4735, "\u2581clothing": 4736, "\u2581egpaar": 4737, "\u2581gereelde": 4738, "\u2581lower": 4739, "\u2581rekening": 4740, "!\"": 4741, "\u25811999": 4742, "\u2581Ar": 4743, "\u2581Close": 4744, "\u2581Hi": 4745, "\u2581Kinders": 4746, "\u2581famous": 4747, "\u2581gereis": 4748, "\u2581jeug": 4749, "\u2581middle": 4750, "\u2581pleeg": 4751, "\u2581separate": 4752, "\u2581sovereignty": 4753, "ED": 4754, "\u2581Britse": 4755, "\u2581charge": 4756, "\u2581dealing": 4757, "\u2581rules": 4758, "\u2581skei": 4759, "lt": 4760, "\u2581bejaardes": 4761, "\u2581geleidelik": 4762, "\u2581hoeveelheid": 4763, "\u2581copies": 4764, "\u2581nearby": 4765, "\u2581ure": 4766, "tal": 4767, "toe": 4768, "\u2581Februarie": 4769, "\u2581enkele": 4770, "\u2581granted": 4771, "\u2581reisende": 4772, "\u2581respekteer": 4773, "\u2581teaches": 4774, "\u2581thereof": 4775, "nd": 4776, "\u2581Russell": 4777, "\u2581Ruth": 4778, "\u2581Dictionary": 4779, "\u2581profesie\u00eb": 4780, "\u2581Russia": 4781, "\u2581confident": 4782, "\u2581Wes": 4783, "\u2581veg": 4784, "\u2581verleen": 4785, "\u2581Never": 4786, "\u2581goodness": 4787, "\u2581hatred": 4788, "\u2581majority": 4789, "\u2581>": 4790, "\u2581Cor": 4791, "\u2581dear": 4792, "\u2581games": 4793, "\u2581l\u00c3aer": 4794, "\u2581meat": 4795, "\u2581steel": 4796, "dig": 4797, "\u00e2": 4798, "\u2581beneficial": 4799, "ze": 4800, "\u2581angry": 4801, "\u2581doodmaak": 4802, "\u2581oes": 4803, "\u2581remaining": 4804, "\u2581Ter": 4805, "\u2581geloop": 4806, "\u2581getuies": 4807, "\u2581survey": 4808, "\u2581wickedness": 4809, "\u2581Leer": 4810, "\u2581Moab": 4811, "\u2581Star": 4812, "\u2581helder": 4813, "\u2581straight": 4814, "val": 4815, "\u2581Ministry": 4816, "\u2581boys": 4817, "\u2581husbands": 4818, "\u2581ontsaglike": 4819, "\u2581receiving": 4820, "\u25811996": 4821, "\u2581Enter": 4822, "\u2581closely": 4823, "\u2581constant": 4824, "\u2581distance": 4825, "\u2581largest": 4826, "\u2581verdeel": 4827, "\u2581volwasse": 4828, "gi": 4829, "\u2581Niemand": 4830, "\u2581compared": 4831, "\u2581keiser": 4832, "\u2581rulers": 4833, "X": 4834, "ful": 4835, "responsibilities": 4836, "com": 4837, "\u258175": 4838, "\u2581praying": 4839, "\u2581solution": 4840, "\u2581stories": 4841, "\u2581touch": 4842, "\u2581Museum": 4843, "\u2581approval": 4844, "\u2581determine": 4845, "\u2581lying": 4846, "\u2581meisies": 4847, "\u2581spanning": 4848, "\u2581vet": 4849, "\u2581culture": 4850, "\u2581verskriklike": 4851, "IS": 4852, "ence": 4853, "\u25811998": 4854, "\u2581loves": 4855, "\u2581oefen": 4856, "\u2581soewereiniteit": 4857, "\u2581trip": 4858, "bel": 4859, "\u2581invitation": 4860, "\u25811945": 4861, "\u2581Stop": 4862, "\u2581andere": 4863, "\u2581bediener": 4864, "\u2581gewig": 4865, "\u2581juis": 4866, "\u2581ondergaan": 4867, "\u2581wrath": 4868, "\u2581DVD": 4869, "\u2581calling": 4870, "\u2581gekoop": 4871, "\u2581gesondig": 4872, "\u2581gesprek": 4873, "\u2581hide": 4874, "\u2581responded": 4875, "je": 4876, "\u2581Con": 4877, "\u2581Court": 4878, "\u2581Redigeer": 4879, "\u2581clothes": 4880, "\u2581increasing": 4881, "\u2581quit": 4882, "sverkondigers": 4883, "\u2581Columbia": 4884, "\u2581Type": 4885, "\u2581constantly": 4886, "\u2581geveg": 4887, "\u2581suiwer": 4888, "\u2581toring": 4889, "\u2581Give": 4890, "\u2581Human": 4891, "\u2581assist": 4892, "\u2581female": 4893, "\u2581burned": 4894, "\u2581heat": 4895, "\u2581ligging": 4896, "\u2581Car": 4897, "\u2581heed": 4898, "\u2581kleure": 4899, "\u2581liefgehad": 4900, "\u2581spot": 4901, "\u2581Choose": 4902, "\u2581aanleiding": 4903, "\u2581price": 4904, "\u2581trial": 4905, "\u2581aanraking": 4906, "\u2581additional": 4907, "\u2581gelykenis": 4908, "\u2581wend": 4909, "\u2581GOD": 4910, "\u2581Pennsylvania": 4911, "\u2581Western": 4912, "\u2581atmosfeer": 4913, "\u2581equal": 4914, "\u2581joyful": 4915, "\u2581providing": 4916, "\u2581thine": 4917, "ized": 4918, "\u2581bekende": 4919, "\u2581entertainment": 4920, "\u2581vorme": 4921, "\u2581sekul\u00eare": 4922, "\u2581strive": 4923, "\u2581traditional": 4924, "\u2581universiteit": 4925, "\u2581verwerk": 4926, "\u2581ended": 4927, "\u2581honest": 4928, "\u2581lojale": 4929, "\u2581refers": 4930, "\u2581twintig": 4931, "\u2581verwoes": 4932, "\u2581witnesses": 4933, "\u2581Af": 4934, "\u2581gegooi": 4935, "\u2581park": 4936, "\u2581potential": 4937, "\u2581superior": 4938, "\u2581uitgaan": 4939, "\u2581remnant": 4940, "\u2581toegepas": 4941, "\u2581fit": 4942, "\u2581funksie": 4943, "\u2581subjects": 4944, "\u2581toeneem": 4945, "\u2581uitnodiging": 4946, "OR": 4947, "ip": 4948, "\u2581dienaars": 4949, "\u2581enable": 4950, "\u2581green": 4951, "\u2581rug": 4952, "\u2581selfde": 4953, "\u2581slotsom": 4954, "our": 4955, "\u2581volmaak": 4956, "\u258112]": 4957, "\u2581Klein": 4958, "\u2581factor": 4959, "\u2581indicated": 4960, "\u2581leads": 4961, "\u2581summer": 4962, "\u2581Ag": 4963, "\u2581directory": 4964, "\u2581kultuur": 4965, "\u2581walls": 4966, "are": 4967, "ld": 4968, "\u2581belange": 4969, "\u2581sang": 4970, "\u2581stones": 4971, "\u2581bowe": 4972, "\u2581herders": 4973, "\u2581sky": 4974, "\u2581Isak": 4975, "\u2581peins": 4976, "\u2581sold": 4977, "\u2581vanwe\u00eb": 4978, "EL": 4979, "ius": 4980, "pa": 4981, "\u2581Edit": 4982, "\u2581chance": 4983, "\u2581network": 4984, "l\u00eaer": 4985, "\u2581Bybelwaarheid": 4986, "\u2581onvolmaakte": 4987, "\u2581verbreek": 4988, "kom": 4989, "ran": 4990, "\u2581Failed": 4991, "\u2581Web": 4992, "\u2581apparently": 4993, "\u2581dream": 4994, "\u2581rots": 4995, "\u2581trade": 4996, "\u2581weak": 4997, "sleutel": 4998, "\u2581Science": 4999, "\u2581marvelous": 5000, "\u2581ywerige": 5001, "ted": 5002, "\u2581Universiteit": 5003, "\u2581border": 5004, "\u2581gevoer": 5005, "\u2581located": 5006, "\u2581oorblyfsel": 5007, "\u2581sitting": 5008, "\u2581vergader": 5009, "\u2581directed": 5010, "\u2581entitled": 5011, "\u2581era": 5012, "\u2581range": 5013, "\u2581smoking": 5014, "Is": 5015, "\u25811985": 5016, "\u258144": 5017, "\u2581aanneem": 5018, "\u2581gepleeg": 5019, "\u2581vergroot": 5020, "ley": 5021, "\u2581generally": 5022, "\u2581reference": 5023, "\u2581doctrine": 5024, "\u2581habits": 5025, "\u2581playing": 5026, "\u2581replied": 5027, "\u2581ruk": 5028, "\u2581waaraan": 5029, "tes": 5030, "\u2581Bar": 5031, "\u2581Sodom": 5032, "\u2581pointed": 5033, "\u2581release": 5034, "\u2581windows": 5035, "behoewe": 5036, "\u2581begrawe": 5037, "\u2581gere\u00ebl": 5038, "\u2581moeg": 5039, "\u2581skip": 5040, "\u2581suddenly": 5041, "\u2581tribes": 5042, "\u2581vergifnis": 5043, "ally": 5044, "\u2581bishop": 5045, "\u2581cross": 5046, "\u2581happens": 5047, "\u2581stamme": 5048, "\u2581vriendelik": 5049, "\u2581belong": 5050, "\u2581fields": 5051, "\u2581soil": 5052, "fi": 5053, "\u2581Deel": 5054, "\u2581lasting": 5055, "\u2581researchers": 5056, "\u2581allows": 5057, "\u2581conflict": 5058, "\u2581discreet": 5059, "\u2581smaak": 5060, "\u2581Oos": 5061, "\u2581heads": 5062, "\u2581versekering": 5063, "mp": 5064, "\u2581Window": 5065, "\u2581ingestel": 5066, "\u2581oopmaak": 5067, "\u2581boot": 5068, "\u2581waaronder": 5069, "\u2581bearing": 5070, "\u2581finding": 5071, "\u2581hidden": 5072, "\u2581identified": 5073, "\u2581uitvind": 5074, "name": 5075, "\u2581bit": 5076, "\u2581render": 5077, "\u2581resist": 5078, "\u2581Men": 5079, "\u2581fees": 5080, "\u2581figure": 5081, "\u2581hiermee": 5082, "\u2581map": 5083, "\u2581opstaan": 5084, "\u2581paaie": 5085, "\u2581assured": 5086, "\u2581idees": 5087, "\u2581Report": 5088, "\u2581streekbyeenkoms": 5089, "\u2581gesalfdes": 5090, "\u2581midde": 5091, "\u2581moontlikheid": 5092, "\u2581roof": 5093, "\u2581verbasend": 5094, "No": 5095, "\u2581gebruiker": 5096, "\u2581godsdiensleiers": 5097, "\u2581heidense": 5098, "\u2581normale": 5099, "\u2581reveals": 5100, "\u2581televisie": 5101, "\u258125,": 5102, "\u2581Engelse": 5103, "\u2581Pas": 5104, "\u2581remarkable": 5105, "\u2581Voer": 5106, "\u2581beloon": 5107, "\u2581geskrywe": 5108, "\u2581hoofstad": 5109, "\u2581perde": 5110, "\u2581method": 5111, "\u2581ore": 5112, "\u2581salt": 5113, "Hoe": 5114, "ID": 5115, "\u2581Aaron": 5116, "\u2581Check": 5117, "\u2581Settings": 5118, "\u2581Thomas": 5119, "\u2581conclude": 5120, "\u2581expressions": 5121, "\u2581feed": 5122, "\u2581proef": 5123, "ON": 5124, "\u2581Ha": 5125, "\u2581Ouers": 5126, "\u2581floor": 5127, "\u25811988": 5128, "\u2581blywende": 5129, "\u2581huil": 5130, "\u2581gewag": 5131, "\u2581inspanning": 5132, "\u2581regter": 5133, "\u2581tuiste": 5134, "\u2581aanvanklik": 5135, "\u2581failure": 5136, "\u2581surprised": 5137, "\u2581insight": 5138, "\u2581log": 5139, "\u2581mislei": 5140, "\u2581upright": 5141, "\u2581armes": 5142, "\u2581genot": 5143, "\u2581gevaarlike": 5144, "\u2581ontwikkeling": 5145, "\u2581oorwinning": 5146, "\u2581smoke": 5147, "\u2581sweet": 5148, "kaart": 5149, "\u2581Jonathan": 5150, "\u2581bedank": 5151, "\u2581bird": 5152, "\u2581code": 5153, "\u2581geslagte": 5154, "\u2581kamer": 5155, "\u2581ongeluk": 5156, "\u2581skills": 5157, "\u2581wek": 5158, "vo": 5159, "\u2581Ka": 5160, "\u2581attendance": 5161, "\u2581gewonder": 5162, "ros": 5163, "\u2581Jordan": 5164, "\u2581Volume": 5165, "\u2581Water": 5166, "\u2581kleiner": 5167, "\u2581toegewy": 5168, "aar": 5169, "\u2581balanced": 5170, "\u2581geskiedkundige": 5171, "\u2581satisfaction": 5172, "\u2581sees": 5173, "\u2581signs": 5174, "\u2581stadig": 5175, "\u2581sterwe": 5176, "\u258126,": 5177, "\u2581Imagine": 5178, "\u2581ear": 5179, "\u2581navorsers": 5180, "\u2581uitgeroep": 5181, "\u2581united": 5182, "hy": 5183, "\u2581Vra": 5184, "\u2581bure": 5185, "\u2581significant": 5186, "\u2581slagoffer": 5187, "\u2581Ongelukkig": 5188, "\u2581egskeiding": 5189, "\u2581milk": 5190, "\u2581omgang": 5191, "\u2581verhinder": 5192, "\u2581bestuurder": 5193, "\u2581default": 5194, "\u2581foundation": 5195, "\u2581glorious": 5196, "\u2581lange": 5197, "\u2581toestel": 5198, "\u2581asb": 5199, "\u2581sondig": 5200, "\u2581Answer": 5201, "\u2581papier": 5202, "\u2581planne": 5203, "\u2581souls": 5204, "How": 5205, "\u2581atmosphere": 5206, "\u2581bedreig": 5207, "\u2581cried": 5208, "\u2581possess": 5209, "\u2581stroom": 5210, "\u2581toegewyde": 5211, "ating": 5212, "\u2581fruitage": 5213, "\u2581kommunikeer": 5214, "\u2581tafel": 5215, "\u2581victim": 5216, "\u2581Kings": 5217, "\u2581ignoreer": 5218, "\u2581moon": 5219, "\u2581vreemde": 5220, "\u2581Bill": 5221, "\u2581End": 5222, "\u2581adult": 5223, "\u2581vergelyking": 5224, "\u2581visible": 5225, "\u2581kommentaar": 5226, "\u2581werking": 5227, "\u2581Beeld": 5228, "\u2581Skryf": 5229, "\u2581dank": 5230, "\u2581feels": 5231, "\u2581goddeloosheid": 5232, "\u2581instrument": 5233, "\u2581threat": 5234, "\u2581win": 5235, "\u2581Religion": 5236, "\u2581eerlik": 5237, "\u2581fourth": 5238, "\u2581armies": 5239, "\u2581moontlike": 5240, "AR": 5241, "\u2581Gospel": 5242, "\u2581demonstrate": 5243, "\u2581ingaan": 5244, "\u2581interesting": 5245, "\u2581ontslae": 5246, "\u2581resulted": 5247, "\u2581sel": 5248, "\u2581Jong": 5249, "\u2581blomme": 5250, "\u2581briewe": 5251, "\u2581offerande": 5252, "\u2581vleis": 5253, "\u2581beloning": 5254, "\u2581blote": 5255, "\u2581east": 5256, "\u2581format": 5257, "\u2581piece": 5258, "vol": 5259, "\u2581daardeur": 5260, "ger": 5261, "ham": 5262, "\u25811994": 5263, "\u2581pagan": 5264, "\u2581season": 5265, "\u2581team": 5266, "\u2581kenne": 5267, "\u2581programme": 5268, "\u2581sickness": 5269, "ang": 5270, "\u2581Korea": 5271, "\u2581beplan": 5272, "\u2581gebod": 5273, "\u2581keeps": 5274, "\u2581pictures": 5275, "\u2581Grieks": 5276, "\u2581Ho": 5277, "\u2581aangehou": 5278, "\u2581gather": 5279, "\u2581slawerny": 5280, "\u2581tekens": 5281, "\u2581Default": 5282, "\u2581Har": 5283, "\u2581Think": 5284, "\u2581misluk": 5285, "\u2581struggle": 5286, "\u2581Tim": 5287, "\u2581herhaaldelik": 5288, "\u2581nooi": 5289, "\u2581tradisionele": 5290, "ance": 5291, "gt": 5292, "\u2581erger": 5293, "\u2581hoogste": 5294, "\u2581products": 5295, "\u2581tiny": 5296, "\u2581burning": 5297, "loos": 5298, "qui": 5299, "\u2581Absalom": 5300, "\u2581attempt": 5301, "\u2581wear": 5302, "\u2581Vo": 5303, "\u2581except": 5304, "\u2581peaceful": 5305, "\u2581verhoog": 5306, "\u2581weapons": 5307, "0": 5308, "Hulle": 5309, "har": 5310, "ker": 5311, "\u2581Nogtans": 5312, "\u2581helper": 5313, "\u2581sad": 5314, "10": 5315, "\u2581HET": 5316, "\u2581Last": 5317, "\u2581Pet": 5318, "\u2581compare": 5319, "\u2581inhoud": 5320, "\u2581opportunities": 5321, "\u2581press": 5322, "\u2581proof": 5323, "\u2581temporary": 5324, "lys": 5325, "\u2581Paris": 5326, "\u2581aspects": 5327, "\u2581bound": 5328, "\u2581critical": 5329, "\u2581declare": 5330, "\u2581diet": 5331, "\u2581labor": 5332, "\u2581pleased": 5333, "\u2581stry": 5334, "\u2581unclean": 5335, "gen": 5336, "\u2581babas": 5337, "\u2581beast": 5338, "\u2581heerser": 5339, "\u2581ran": 5340, "\u2581voorwerpe": 5341, "\u2581Print": 5342, "\u2581Sarah": 5343, "\u2581goue": 5344, "\u2581leuens": 5345, "\u2581mees": 5346, "lie": 5347, "\u2581Soviet": 5348, "\u2581YOU": 5349, "\u2581el": 5350, "king": 5351, "\u2581Mail": 5352, "\u2581eiendom": 5353, "\u2581holding": 5354, "\u2581streek": 5355, "\u2581unknown": 5356, "\u2581waardeur": 5357, "red": 5358, "\u2581Britannica": 5359, "\u2581Sluit": 5360, "\u2581Source": 5361, "\u2581le\u00ebrskare": 5362, "\u2581refer": 5363, "\u258172": 5364, "\u2581eendag": 5365, "\u2581geheue": 5366, "\u2581gekyk": 5367, "\u2581meebring": 5368, "\u2581opgerig": 5369, "und": 5370, "\u2581looks": 5371, "\u2581officials": 5372, "kel": 5373, "ki": 5374, "\u2581(22": 5375, "\u2581marry": 5376, "ES": 5377, "\u2581(8": 5378, "\u2581beweging": 5379, "\u2581printed": 5380, "\u2581visitors": 5381, "jo": 5382, "\u2581'?": 5383, "\u2581Back": 5384, "\u2581agreed": 5385, "\u2581boat": 5386, "\u2581conventions": 5387, "\u2581meld": 5388, "\u2581menu": 5389, "\u2581plain": 5390, "\u2581sub": 5391, "ard": 5392, "\u2581drank": 5393, "\u2581super": 5394, "\u2581weduwee": 5395, "\u2581yster": 5396, "\u25811986": 5397, "\u2581broke": 5398, "\u2581kamp": 5399, "\u2581properly": 5400, "\u2581re\u00ebling": 5401, "ering": 5402, "\u2581February": 5403, "\u2581contribute": 5404, "\u2581sinful": 5405, "huis": 5406, "\u25811989": 5407, "\u2581Japannese": 5408, "\u2581refuge": 5409, "\u2581worthy": 5410, "\u2581Caesar": 5411, "\u2581Iemand": 5412, "\u2581appreciated": 5413, "\u2581character": 5414, "\u2581ge\u00efnspireer": 5415, "\u2581groen": 5416, "\u2581inhabited": 5417, "\u2581klim": 5418, "\u2581oortreding": 5419, "\u2581pionierdiens": 5420, "iet": 5421, "\u258133:": 5422, "\u2581beloof": 5423, "\u2581bydra": 5424, "\u2581claimed": 5425, "\u2581touched": 5426, "New": 5427, "\u2581Greece": 5428, "\u2581inneem": 5429, "\u2581kanker": 5430, "\u2581skadelike": 5431, "\u2581verhef": 5432, "Di\u00e9": 5433, "\u2581Laai": 5434, "\u2581Per": 5435, "\u2581audience": 5436, "\u2581sessie": 5437, "\u2581sinned": 5438, "\u2581wapens": 5439, "ated": 5440, "format": 5441, "\u2581accompany": 5442, "\u2581grens": 5443, "\u2581re\u00ebls": 5444, "\u2581riglyne": 5445, "\u2581119": 5446, "\u2581Aktiveer": 5447, "\u2581Samaria": 5448, "\u2581inner": 5449, "\u2581onsedelike": 5450, "\u2581oppervlak": 5451, "\u2581safety": 5452, "\u2581turning": 5453, "not": 5454, "\u2581aanmoediging": 5455, "\u2581evangelie": 5456, "\u2581gedit": 5457, "\u2581hegte": 5458, "\u2581height": 5459, "\u2581hieroor": 5460, "\u2581metgeselle": 5461, "\u2581phone": 5462, "\u2581secure": 5463, "\u2581specified": 5464, "\u2581toename": 5465, "\u2581visioen": 5466, "\u2581zealous": 5467, "\u2581Oh": 5468, "\u2581hardly": 5469, "\u2581listened": 5470, "\u2581Address": 5471, "\u2581Almighty": 5472, "\u2581DIT": 5473, "\u2581conducted": 5474, "\u2581la": 5475, "\u2581restored": 5476, "\u2581settings": 5477, "\u2581sounds": 5478, "kan": 5479, "\u2581Washington": 5480, "\u2581arranged": 5481, "\u2581begins": 5482, "\u2581bene": 5483, "\u2581systems": 5484, "\u2581visiting": 5485, "rhande": 5486, "\u2581Mr": 5487, "\u2581Often": 5488, "\u2581besoekers": 5489, "\u2581betroubare": 5490, "\u2581lewend": 5491, "\u2581selle": 5492, "bar": 5493, "program": 5494, "\u2581Konings": 5495, "\u2581Talle": 5496, "\u2581freely": 5497, "\u2581opname": 5498, "\u2581pous": 5499, "\u2581skerm": 5500, "\u2581wete": 5501, "\u2581Learn": 5502, "\u2581hardloop": 5503, "\u2581omgee": 5504, "\u2581verbinding": 5505, "\u2581afstand": 5506, "\u2581beklee": 5507, "\u2581feature": 5508, "\u2581melk": 5509, "\u2581methods": 5510, "\u2581volume": 5511, "\u2581waste": 5512, "\u2581Aantal": 5513, "\u2581tender": 5514, "\u2581Jona": 5515, "\u2581Nasies": 5516, "\u2581brochure": 5517, "\u2581northern": 5518, "\u2581standaard": 5519, "\u2581voorsiening": 5520, "\u2581Encyclop\u00e6dia": 5521, "\u2581Nisan": 5522, "\u2581Old": 5523, "\u2581bar": 5524, "\u2581colors": 5525, "\u2581experts": 5526, "\u2581gewelddadige": 5527, "\u2581manager": 5528, "ub": 5529, "\u258152": 5530, "\u2581Rusland": 5531, "\u2581Table": 5532, "\u2581[\"": 5533, "\u2581district": 5534, "\u2581doeltreffend": 5535, "\u2581Long": 5536, "\u2581anymore": 5537, "\u2581excellent": 5538, "\u2581regverdiges": 5539, "\u2581scene": 5540, "\u2581weather": 5541, "They": 5542, "time": 5543, "\u258120]": 5544, "\u2581fearing": 5545, "\u2581ought": 5546, "\u2581reguit": 5547, "\u25811970": 5548, "\u2581Park": 5549, "\u2581Teks": 5550, "\u2581familiar": 5551, "\u2581gestig": 5552, "\u2581maatskaplike": 5553, "\u2581merkwaardige": 5554, "\u2581reduce": 5555, "let": 5556, "rie": 5557, "\u2581Spaanse": 5558, "\u2581bygedra": 5559, "\u2581kern": 5560, "\u2581koninklike": 5561, "\u2581unless": 5562, "\u2581vensters": 5563, "Wanneer": 5564, "her": 5565, "\u2581disaster": 5566, "\u2581gets": 5567, "\u2581prent": 5568, "\u2581uitgevoer": 5569, "\u2581vee": 5570, "isme": 5571, "\u2581VER": 5572, "\u2581somer": 5573, "\u2581treasure": 5574, "To": 5575, "ach": 5576, "\u2581aspek": 5577, "\u2581Home": 5578, "\u2581Unknown": 5579, "\u2581byeenkomste": 5580, "\u2581nederige": 5581, "\u2581recalls": 5582, "\u2581stake": 5583, "\u2581vermo\u00ebns": 5584, "\u258134.": 5585, "\u2581Hoeveel": 5586, "\u2581Regard": 5587, "\u2581burden": 5588, "\u2581merk": 5589, "\u2581oefening": 5590, "\u2581succeed": 5591, "\u2581Babel": 5592, "\u2581Martin": 5593, "\u2581Start": 5594, "\u2581VAN": 5595, "\u2581market": 5596, "\u2581skaars": 5597, "ists": 5598, "\u2581A\u00e4ron": 5599, "\u2581Russian": 5600, "\u2581strengthened": 5601, "\u2581temperature": 5602, "\u2581Trac": 5603, "\u2581Watching": 5604, "\u2581assistance": 5605, "\u2581vermeerder": 5606, "\u2581widow": 5607, "\u2581Griekeland": 5608, "\u2581calendar": 5609, "\u2581exposed": 5610, "\u2581mention": 5611, "\u2581opposite": 5612, "\u2581streets": 5613, "\u2581aard": 5614, "\u2581afgele\u00eb": 5615, "\u2581leeg": 5616, "\u2581uitge": 5617, "\u2581120": 5618, "\u2581Merk": 5619, "\u2581geneentheid": 5620, "\u2581hoerery": 5621, "\u2581quick": 5622, "\u2581selfmoord": 5623, "log": 5624, "\u2581System": 5625, "\u2581behulp": 5626, "\u2581dress": 5627, "\u2581jammer": 5628, "\u2581leiers": 5629, "\u2581tend": 5630, "\u2581Click": 5631, "\u2581Find": 5632, "\u2581Ne": 5633, "\u2581Second": 5634, "\u2581abandoned": 5635, "\u2581alreeds": 5636, "\u2581dame": 5637, "\u2581enabled": 5638, "\u2581indruk": 5639, "\u2581opsieners": 5640, "\u2581prophetic": 5641, "\u25811980": 5642, "\u2581klink": 5643, "\u2581offerings": 5644, "\u2581otherwise": 5645, "\u2581saai": 5646, "ff": 5647, "\u2581numerous": 5648, "\u258100": 5649, "\u2581afterward": 5650, "\u2581bloedoortapping": 5651, "\u2581dog": 5652, "\u2581multitude": 5653, "\u2581teenstand": 5654, "great": 5655, "\u2581Center": 5656, "\u2581deurgebring": 5657, "\u2581slang": 5658, "\u2581sout": 5659, "\u2581traveled": 5660, "beeld": 5661, "ck": 5662, "ot": 5663, "\u258147": 5664, "\u2581Art": 5665, "\u2581Je": 5666, "\u2581bond": 5667, "\u2581card": 5668, "\u2581ingeneem": 5669, "\u2581limit": 5670, "\u2581poort": 5671, "\u2581profetiese": 5672, "\u2581restore": 5673, "\u2581Eerstens": 5674, "\u2581Program": 5675, "\u2581applying": 5676, "\u2581dangers": 5677, "\u2581lui": 5678, "\u2581refuse": 5679, "\u2581reject": 5680, "but": 5681, "sboodskap": 5682, "\u2581L\u00eaer": 5683, "\u2581brosjure": 5684, "\u2581companions": 5685, "\u2581mass": 5686, "\u2581weergawe": 5687, "\u2581Heer": 5688, "\u2581Israelite": 5689, "\u2581Organization": 5690, "\u2581design": 5691, "\u2581grand": 5692, "\u2581kuns": 5693, "\u2581mettertyd": 5694, "\u2581noorde": 5695, "\u2581types": 5696, "\u2581verlies": 5697, "\u25811950": 5698, "\u2581Eli": 5699, "\u2581objects": 5700, "\u2581primary": 5701, "\u2581scriptures": 5702, "voor": 5703, "\u2581BIBLE": 5704, "\u2581kosbaar": 5705, "\u2581mothers": 5706, "\u2581nuclear": 5707, "\u2581Gelukkig": 5708, "\u2581Trinity": 5709, "\u2581Which": 5710, "\u2581fallen": 5711, "\u2581film": 5712, "\u2581geskil": 5713, "\u2581godsdienstige": 5714, "\u2581herhaal": 5715, "\u2581islands": 5716, "\u2581movement": 5717, "\u2581possibly": 5718, "\u2581AWAKE": 5719, "\u2581Daily": 5720, "\u2581Death": 5721, "\u2581serves": 5722, "\u2581verses": 5723, "\u2581welslae": 5724, "20": 5725, "\u2581BE": 5726, "\u2581Says": 5727, "\u2581degree": 5728, "\u2581dryf": 5729, "\u2581velddiens": 5730, "\u258166": 5731, "\u2581Eventually": 5732, "\u2581Nasionale": 5733, "\u2581angs": 5734, "\u2581credit": 5735, "\u2581vo\u00ebl": 5736, "ren": 5737, "\u258119;": 5738, "\u2581relates": 5739, "Kyk": 5740, "Moenie": 5741, "\u2581Levites": 5742, "\u2581Los": 5743, "\u2581accomplished": 5744, "\u2581afvra": 5745, "\u2581claims": 5746, "\u2581divided": 5747, "\u2581faktor": 5748, "\u2581gesprekke": 5749, "\u2581Island": 5750, "\u2581resources": 5751, "\u2581uitgegaan": 5752, "\u2581Genootskap": 5753, "\u2581redeneer": 5754, "\u2581vervaardig": 5755, "\u2581voornemens": 5756, "hulle": 5757, "\u2581fornication": 5758, "\u2581risiko": 5759, "tar": 5760, "\u2581Amos": 5761, "\u2581Send": 5762, "\u2581Skuif": 5763, "\u2581bewering": 5764, "\u2581di": 5765, "\u2581instructions": 5766, "\u2581operasie": 5767, "\u2581provisions": 5768, "\u2581rose": 5769, "\u2581sondige": 5770, "\u2581waak": 5771, "\u2581Truth": 5772, "\u2581marked": 5773, "\u2581teenwoordig": 5774, "\u2581Likewise": 5775, "\u2581belasting": 5776, "\u2581formatted": 5777, "\u2581gesing": 5778, "\u2581nadink": 5779, "\u2581opvattings": 5780, "\u2581physically": 5781, "skap": 5782, "\u258119]": 5783, "\u2581Philip": 5784, "\u2581innocent": 5785, "\u2581property": 5786, "\u2581toneel": 5787, "fer": 5788, "\u258146": 5789, "\u2581Li": 5790, "\u2581Log": 5791, "\u2581healing": 5792, "\u2581lessons": 5793, "\u2581lovers": 5794, "\u2581options": 5795, "\u2581star": 5796, "\u2581symptoms": 5797, "\u2581versuim": 5798, "\u00e4": 5799, "\u2581Hand": 5800, "\u2581arise": 5801, "\u2581lae": 5802, "\u2581loopbaan": 5803, "\u2581temptation": 5804, "\u2581verberg": 5805, "yn": 5806, "\u2581herinneringe": 5807, "\u2581letterlik": 5808, "\u2581trap": 5809, "nt": 5810, "sies": 5811, "\u258124;": 5812, "\u2581Post": 5813, "\u2581Vind": 5814, "\u2581dealings": 5815, "\u2581wenke": 5816, "DE": 5817, "\u2581Public": 5818, "\u2581Thessalonians": 5819, "\u2581blue": 5820, "\u2581verderf": 5821, "los": 5822, "\u2581Medical": 5823, "\u2581ONTWAAK": 5824, "\u2581genade": 5825, "\u2581kindly": 5826, "\u2581opgeneem": 5827, "ana": 5828, "\u2581Di": 5829, "\u2581fat": 5830, "\u2581fresh": 5831, "\u2581oorwin": 5832, "\u2581orde": 5833, "\u2581plans": 5834, "\u2581select": 5835, "\u2581toenemende": 5836, "\u2581vierde": 5837, "\u2581Eastern": 5838, "\u2581Miga": 5839, "\u2581Ondank": 5840, "\u2581faithfully": 5841, "\u2581kilogram": 5842, "\u2581nuttige": 5843, "\u2581occasions": 5844, "ph": 5845, "\u2581Nieu": 5846, "\u2581pleasant": 5847, "\u2581quiet": 5848, "\u2581selde": 5849, "\u2581welsyn": 5850, "\u2581Wall": 5851, "\u2581couples": 5852, "zi": 5853, "\u2581bottom": 5854, "\u2581provision": 5855, "\u2581requirements": 5856, "\u2581simptome": 5857, "\u2581woud": 5858, "\u2581Broer": 5859, "\u2581Jonah": 5860, "\u2581font": 5861, "\u2581sak": 5862, "\u2581terrible": 5863, "AT": 5864, "\u258149": 5865, "\u2581Rutherford": 5866, "\u2581Sara": 5867, "\u2581gras": 5868, "\u2581principal": 5869, "\u2581privileges": 5870, "\u2581sagmoedigheid": 5871, "\u2581voed": 5872, "chi": 5873, "net": 5874, "ors": 5875, "\u2581MEDEWERKER": 5876, "\u2581advance": 5877, "\u2581endeavor": 5878, "\u2581label": 5879, "\u2581worldly": 5880, "tan": 5881, "\u2581besmet": 5882, "\u2581erfenis": 5883, "\u2581onrein": 5884, "\u2581square": 5885, "\u2581Min": 5886, "\u2581fisies": 5887, "\u2581harmful": 5888, "\u2581print": 5889, "\u2581punishment": 5890, "\u2581suicide": 5891, "cu": 5892, "ung": 5893, "www": 5894, "\u2581Barnabas": 5895, "\u2581Indian": 5896, "\u2581Sedert": 5897, "\u2581lips": 5898, "\u2581scale": 5899, "mar": 5900, "rus": 5901, "\u2581Dieselfde": 5902, "\u2581burnt": 5903, "\u2581difficulties": 5904, "\u2581features": 5905, "\u2581kalm": 5906, "\u2581scholars": 5907, "\u2581verspreiding": 5908, "ide": 5909, "\u2581affairs": 5910, "\u2581beskuldig": 5911, "\u2581deelgeneem": 5912, "\u2581larger": 5913, "\u2581relationships": 5914, "\u2581bevredig": 5915, "\u2581coast": 5916, "\u2581grootgeword": 5917, "\u2581involve": 5918, "\u2581ys": 5919, "sh": 5920, "\u2581California": 5921, "\u2581Him": 5922, "\u2581Leviete": 5923, "\u2581eenkeer": 5924, "\u2581establish": 5925, "\u2581noticed": 5926, "\u2581ongelukkig": 5927, "\u2581suggestions": 5928, "\u2581tiener": 5929, "\u2581knoppie": 5930, "\u2581metal": 5931, "\u2581voorgekom": 5932, "IT": 5933, "jw": 5934, "\u2581Grand": 5935, "\u2581Pe": 5936, "\u2581reaching": 5937, "\u2581satisfying": 5938, "\u2581sneeu": 5939, "day": 5940, "hal": 5941, "\u258129,": 5942, "\u25813]": 5943, "\u2581Ongeveer": 5944, "\u2581blydskap": 5945, "\u2581ge\u00efdentifiseer": 5946, "\u2581spite": 5947, "\u2581tuisbybelstudie": 5948, "\u2581Engels": 5949, "\u2581GDM": 5950, "\u2581missing": 5951, "\u2581sterker": 5952, "\u2581unusual": 5953, "\u2581wrede": 5954, "dy": 5955, "ties": 5956, "\u2581Pre": 5957, "\u2581customs": 5958, "\u2581gevlug": 5959, "\u2581tegnologie": 5960, "mm": 5961, "vis": 5962, "\u2581dienste": 5963, "\u2581ex": 5964, "\u2581illustrate": 5965, "\u2581undeserved": 5966, "hu": 5967, "\u2581behae": 5968, "\u2581lippe": 5969, "\u2581neiging": 5970, "\u2581technology": 5971, "LE": 5972, "\u2581SE": 5973, "\u2581Street": 5974, "\u2581corrupt": 5975, "\u2581prominent": 5976, "\u2581wonders": 5977, "ens": 5978, "tion": 5979, "\u2581Republic": 5980, "\u2581droefheid": 5981, "\u2581engage": 5982, "\u2581grief": 5983, "\u2581kaart": 5984, "\u2581offerandes": 5985, "\u2581passing": 5986, "\u2581puts": 5987, "\u2581tabernacle": 5988, "\u2581waarhede": 5989, "\u2581Naomi": 5990, "\u2581commandment": 5991, "\u2581verklaring": 5992, "\u25812001": 5993, "\u25814]": 5994, "\u2581Oseaan": 5995, "\u2581deeds": 5996, "\u2581horse": 5997, "\u2581nasionale": 5998, "\u2581oopgemaak": 5999, "\u2581remote": 6000, "\u2581vreedsame": 6001, "\u2581web": 6002, "ade": 6003, "\u2581Intussen": 6004, "\u2581Ru": 6005, "\u2581bones": 6006, "\u2581configuration": 6007, "\u2581double": 6008, "\u2581grave": 6009, "\u2581medicine": 6010, "\u2581relations": 6011, "\u25811960": 6012, "\u2581nood": 6013, "\u2581noodsaaklike": 6014, "ski": 6015, "streeks": 6016, "\u2581Australian": 6017, "\u2581HIV": 6018, "\u2581Visit": 6019, "\u2581cm": 6020, "\u2581indefinite": 6021, "\u2581opsiener": 6022, "\u2581reaction": 6023, "\u2581sports": 6024, "\u2581werp": 6025, "du": 6026, "\u258156": 6027, "\u2581cares": 6028, "\u2581fighting": 6029, "\u2581jul": 6030, "\u2581reminded": 6031, "\u2581ruiter": 6032, "\u2581wipe": 6033, "TE": 6034, "\u258151": 6035, "\u2581considering": 6036, "\u2581determination": 6037, "\u2581symbol": 6038, "\u2581waarheen": 6039, "ize": 6040, "\u2581Richard": 6041, "\u2581slot": 6042, "\u2581wonderlik": 6043, "\u2581Elkeen": 6044, "\u2581abundant": 6045, "\u2581gradually": 6046, "\u2581ligte": 6047, "\\": 6048, "\u2581literally": 6049, "\u2581oortuiging": 6050, "\u2581ruim": 6051, "\u2581taste": 6052, "\u2581Ro": 6053, "\u2581conscious": 6054, "\u2581erg": 6055, "\u2581flee": 6056, "\u2581flowers": 6057, "\u2581waardevolle": 6058, "wer": 6059, "\u2581Mosaic": 6060, "\u2581benoudheid": 6061, "\u2581firmly": 6062, "\u2581fun": 6063, "\u2581hit": 6064, "\u2581selfish": 6065, "dit": 6066, "\u2581Baal": 6067, "\u2581Gids": 6068, "\u2581afternoon": 6069, "\u2581wedding": 6070, "\u2581wonderwerke": 6071, "Toe": 6072, "\u258122;": 6073, "\u2581Age": 6074, "\u2581Esau": 6075, "\u2581Lines": 6076, "\u2581Ryk": 6077, "\u2581asks": 6078, "\u2581gawes": 6079, "\u2581proud": 6080, "\u2581vererger": 6081, "\u2581vrygelaat": 6082, "rd": 6083, "\u2581Zion": 6084, "\u2581drama": 6085, "\u2581programs": 6086, "\u2581asem": 6087, "\u2581kalender": 6088, "\u2581princes": 6089, "\u2581snow": 6090, "meer": 6091, "\u2581electronic": 6092, "\u2581elements": 6093, "\u2581teksuitleg": 6094, "aal": 6095, "\u2581beperkings": 6096, "\u2581beskadig": 6097, "\u2581commit": 6098, "\u2581dieet": 6099, "\u2581hegtenis": 6100, "\u2581ice": 6101, "\u2581replaced": 6102, "\u2581Down": 6103, "\u2581oudste": 6104, "\u2581shepherds": 6105, "\u2581stayed": 6106, "hou": 6107, "ik": 6108, "skeidingsvermo\u00eb": 6109, "\u00f6": 6110, "\u2581aankweek": 6111, "\u2581aged": 6112, "\u2581handelinge": 6113, "\u2581kruis": 6114, "\u2581tieners": 6115, "\u2581tydelike": 6116, "\u2581Filistyne": 6117, "\u2581TRANSLATORS": 6118, "\u2581board": 6119, "\u2581career": 6120, "\u2581dwelling": 6121, "\u2581klank": 6122, "\u2581mistakes": 6123, "cy": 6124, "lyn": 6125, "ning": 6126, "\u2581Further": 6127, "\u2581Italian": 6128, "\u2581Q": 6129, "\u2581Students": 6130, "\u2581calm": 6131, "\u2581extreme": 6132, "\u2581gemiddelde": 6133, "sa": 6134, "\u258127]": 6135, "\u2581Hezekiah": 6136, "\u2581mild": 6137, "\u2581twice": 6138, "\u2581Sydney": 6139, "\u2581fled": 6140, "\u2581ongetroude": 6141, "\u2581rulership": 6142, "\u2581vordering": 6143, "par": 6144, "\u258111]": 6145, "\u2581aangesluit": 6146, "Wie": 6147, "\u2581Ba": 6148, "\u2581Teach": 6149, "\u2581dankie": 6150, "\u2581elektroniese": 6151, "\u2581koring": 6152, "\u2581lengte": 6153, "\u2581onderwysers": 6154, "\u2581skaam": 6155, "\u2581Three": 6156, "\u2581goddeloses": 6157, "\u2581involving": 6158, "\u2581lesse": 6159, "\u2581levels": 6160, "\u2581schools": 6161, "\u2581southern": 6162, "\u2581unit": 6163, "\u2581Werk": 6164, "\u2581represent": 6165, "\u2581antieke": 6166, "\u2581royal": 6167, "\u2581telefoon": 6168, "\u2581verhewe": 6169, "\u2581Left": 6170, "\u2581author": 6171, "\u2581begryp": 6172, "\u2581miracles": 6173, "\u2581warns": 6174, "\u2581Sam": 6175, "\u2581annual": 6176, "\u2581ends": 6177, "\u2581habit": 6178, "\u2581mure": 6179, "\u2581origin": 6180, "\u2581Philistines": 6181, "\u2581beroof": 6182, "\u2581buiteland": 6183, "\u2581printing": 6184, "\u2581reply": 6185, "\u2581threatened": 6186, "\u2581Dalk": 6187, "\u2581introduced": 6188, "\u2581karakter": 6189, "\u2581liefderyk": 6190, "\u2581publiek": 6191, "ding": 6192, "\u2581Hu": 6193, "\u2581Light": 6194, "\u2581URL": 6195, "\u2581Vloed": 6196, "\u2581anxious": 6197, "\u2581dying": 6198, "\u2581ramp": 6199, "tig": 6200, "\u2581con": 6201, "\u2581director": 6202, "\u2581grootgemaak": 6203, "\u2581resolve": 6204, "\u2581samelewing": 6205, "\u2581suggests": 6206, "\u2581waardigheid": 6207, "ong": 6208, "\u2581attacks": 6209, "\u2581stick": 6210, "\u2581surgery": 6211, "\u2581wondered": 6212, "Look": 6213, "\u2581Dad": 6214, "\u2581invisible": 6215, "\u2581onsedelikheid": 6216, "\u2581songs": 6217, "\u2581watching": 6218, "\u2581Besides": 6219, "\u2581Fear": 6220, "\u2581row": 6221, "\u2581sogenaamde": 6222, "geskiedenis": 6223, "ika": 6224, "\u2581Date": 6225, "\u2581dissipel": 6226, "\u2581guilty": 6227, "\u2581hitte": 6228, "\u2581replace": 6229, "\u2581stres": 6230, "berg": 6231, "che": 6232, "pro": 6233, "su": 6234, "\u2581Study": 6235, "\u2581beproewing": 6236, "\u2581geskrifte": 6237, "\u2581observes": 6238, "\u2581regterhand": 6239, "\u2581strange": 6240, "\u2581vessels": 6241, "\u2581vliegtuig": 6242, "AS": 6243, "By": 6244, "\u2581+": 6245, "\u25812004": 6246, "\u2581Early": 6247, "\u2581Jan": 6248, "\u2581geskied": 6249, "\u2581injustice": 6250, "\u2581koue": 6251, "\u2581Vrae": 6252, "\u2581evolution": 6253, "\u2581gathering": 6254, "\u2581kinds": 6255, "dis": 6256, "\u2581Rut": 6257, "\u2581Size": 6258, "\u2581gewoontes": 6259, "\u2581historian": 6260, "\u2581swanger": 6261, "\u2581ton": 6262, "\u2581verskoning": 6263, "ging": 6264, "\u2581Data": 6265, "\u2581burn": 6266, "\u2581evolusie": 6267, "\u2581geleerdes": 6268, "\u2581lord": 6269, "\u2581sondaars": 6270, "\u2581buildings": 6271, "\u2581communicate": 6272, "\u2581ho\u00ebpriester": 6273, "\u2581keuses": 6274, "ator": 6275, "ping": 6276, "\u2581Copy": 6277, "\u2581Toronto": 6278, "\u2581arrested": 6279, "\u2581portion": 6280, "\u2581suggested": 6281, "\u2581vang": 6282, "\u2581visits": 6283, "SE": 6284, "kie": 6285, "\u2581Whatever": 6286, "\u2581dokumente": 6287, "\u2581geopen": 6288, "\u2581painful": 6289, "\u2581Sodoende": 6290, "\u2581siele": 6291, "\u2581valley": 6292, "US": 6293, "\u2581FOR": 6294, "\u2581Upon": 6295, "\u2581aangename": 6296, "\u2581geboue": 6297, "\u2581inkomste": 6298, "\u2581shape": 6299, "\u2581tradition": 6300, "\u2581verlossing": 6301, "\u2581bedrog": 6302, "\u2581journal": 6303, "\u2581translations": 6304, "\u2581twenty": 6305, "\u2581vername": 6306, "\u2581writings": 6307, "\u2581Ad": 6308, "\u2581Union": 6309, "\u2581arose": 6310, "\u2581cup": 6311, "\u2581frequently": 6312, "\u2581gebalanseerde": 6313, "maar": 6314, "\u258155": 6315, "\u2581sir": 6316, "\u2581Enable": 6317, "\u2581JY": 6318, "\u2581afge": 6319, "\u2581belangrikheid": 6320, "\u2581opgestaan": 6321, "\u2581speaker": 6322, "\u2581dollars": 6323, "\u2581turns": 6324, "\u2581Gal": 6325, "\u2581Map": 6326, "\u2581Micah": 6327, "\u2581accident": 6328, "\u2581ban": 6329, "\u2581represented": 6330, "\u2581universal": 6331, "Mosa\u00efese": 6332, "\u2581Sadly": 6333, "\u2581Sch": 6334, "\u2581dode": 6335, "\u2581faces": 6336, "\u2581telephone": 6337, "\u2581Courtesy": 6338, "\u2581adultery": 6339, "\u2581chemiese": 6340, "\u2581cloud": 6341, "\u2581creature": 6342, "\u2581element": 6343, "\u2581ignore": 6344, "\u2581skiet": 6345, "\u25811939": 6346, "\u258144.": 6347, "\u2581Ab": 6348, "\u2581Gideon": 6349, "\u2581Ooste": 6350, "\u2581Pacific": 6351, "\u2581Sinai": 6352, "\u2581concentration": 6353, "\u2581everywhere": 6354, "\u2581grass": 6355, "\u2581instruksies": 6356, "\u2581obtained": 6357, "\u2581aspect": 6358, "\u2581gewild": 6359, "\u2581horses": 6360, "\u2581inherit": 6361, "\u2581victory": 6362, "ue": 6363, "\u258127,": 6364, "\u2581Lam": 6365, "\u2581aanmoedig": 6366, "\u2581argument": 6367, "\u2581deeglik": 6368, "\u2581geheime": 6369, "\u2581singing": 6370, "\u2581Aangaande": 6371, "\u2581Volgende": 6372, "\u2581begaan": 6373, "\u2581gedwing": 6374, "\u2581onverdiend": 6375, "\u2581rendered": 6376, "\u2581sinners": 6377, "Hou": 6378, "pl": 6379, "\u2581Binne": 6380, "\u2581Bladsy": 6381, "\u2581Plek": 6382, "\u2581beat": 6383, "\u2581hel": 6384, "\u2581recall": 6385, "\u2581spirits": 6386, "\u2581tevergeefs": 6387, "\u2581verdra": 6388, "pie": 6389, "\u2581Verstek": 6390, "\u2581base": 6391, "\u2581satisfied": 6392, "\u2581verdorwe": 6393, "So": 6394, "sis": 6395, "\u2581Asa": 6396, "\u2581Bluetooth": 6397, "\u2581Jehu": 6398, "\u2581attitudes": 6399, "\u2581drew": 6400, "\u2581fruits": 6401, "\u2581newly": 6402, "\u2581possession": 6403, "\u2581sell": 6404, "\u2581sendeling": 6405, "\u2581shame": 6406, "\u2581string": 6407, "\u2581toestemming": 6408, "\u2581tons": 6409, "\u2581widely": 6410, "\u2581Catholics": 6411, "\u2581WHAT": 6412, "\u2581citizens": 6413, "\u2581corruption": 6414, "\u2581lied": 6415, "\u2581player": 6416, "\u2581tax": 6417, "wel": 6418, "\u2581Tipe": 6419, "\u2581Werkskerm": 6420, "\u2581Within": 6421, "\u2581currently": 6422, "\u2581owerheid": 6423, "\u2581parable": 6424, "\u2581Group": 6425, "\u2581Information": 6426, "\u2581be\u00ebindig": 6427, "\u2581detail": 6428, "30": 6429, "\u258134,": 6430, "\u2581companion": 6431, "\u2581contained": 6432, "\u2581gevul": 6433, "\u2581hongersnood": 6434, "\u2581pawn": 6435, "\u2581commands": 6436, "\u2581laag": 6437, "ick": 6438, "\u2581blou": 6439, "\u2581eager": 6440, "\u2581poured": 6441, "gg": 6442, "ont": 6443, "\u2581Any": 6444, "\u2581Kaart": 6445, "\u2581ca": 6446, "\u2581installed": 6447, "\u2581pounds": 6448, "\u2581tande": 6449, "\u2581writers": 6450, "Keep": 6451, "art": 6452, "with": 6453, "\u258124]": 6454, "\u2581Power": 6455, "\u2581aankom": 6456, "\u2581kere": 6457, "\u2581prisoners": 6458, "\u2581reputation": 6459, "\u2581skatte": 6460, "\u2581trein": 6461, "\u2581verstek": 6462, "\u258153": 6463, "\u258154": 6464, "\u2581Again": 6465, "\u2581Far": 6466, "\u2581Mu": 6467, "\u2581extremely": 6468, "\u2581insekte": 6469, "\u2581killing": 6470, "\u2581nageslag": 6471, "\u2581pick": 6472, "\u2581section": 6473, "pot": 6474, "\u2581[1": 6475, "\u2581appeal": 6476, "\u2581bedienaars": 6477, "\u2581bedrieg": 6478, "\u2581dooie": 6479, "\u2581kenmerk": 6480, "\u2581obligation": 6481, "\u2581opinion": 6482, "\u2581spesies": 6483, "\u2581suggest": 6484, "\u2581te\u00eb": 6485, "pre": 6486, "\u2581gestoor": 6487, "\u2581getalle": 6488, "\u2581heartfelt": 6489, "\u2581jongste": 6490, "\u2581mid": 6491, "\u2581opbou": 6492, "\u2581resulting": 6493, "\u2581union": 6494, "UR": 6495, "\u2581eksemplaar": 6496, "\u2581jobs": 6497, "\u2581mildness": 6498, "\u2581sentimeter": 6499, "\u2581tests": 6500, "\u2581Ken": 6501, "\u2581Way": 6502, "\u2581agreement": 6503, "\u2581algehele": 6504, "\u2581fyn": 6505, "\u2581qualified": 6506, "\u2581station": 6507, "\u2581ID": 6508, "\u2581leerstellings": 6509, "\u2581uitoefen": 6510, "\u2581Alles": 6511, "\u2581Su": 6512, "\u2581context": 6513, "\u2581medisyne": 6514, "\u2581versier": 6515, "Hierdie": 6516, "ef": 6517, "\u2581Sleutel": 6518, "\u2581beland": 6519, "\u2581koms": 6520, "\u2581oorweldig": 6521, "\u2581solid": 6522, "\u2581worshippers": 6523, "ander": 6524, "lan": 6525, "\u2581Control": 6526, "\u2581doors": 6527, "\u2581famine": 6528, "\u2581getroude": 6529, "\u2581getrouheid": 6530, "\u2581tobacco": 6531, "iv": 6532, "ydens": 6533, "\u2581Esther": 6534, "\u2581Jean": 6535, "\u2581moeders": 6536, "\u2581pleks": 6537, "ET": 6538, "stand": 6539, "\u2581Joab": 6540, "\u2581du": 6541, "\u2581geprys": 6542, "\u2581http": 6543, "\u2581ordered": 6544, "\u2581pion": 6545, "\u2581vreugdevolle": 6546, "\u2581waardig": 6547, "Why": 6548, "ui": 6549, "\u2581Flood": 6550, "\u2581Insert": 6551, "\u2581influenced": 6552, "\u2581plus": 6553, "\u2581rebellion": 6554, "\u2581theory": 6555, "word": 6556, "\u2581Peru": 6557, "\u2581Skrap": 6558, "\u2581betree": 6559, "\u2581changing": 6560, "\u2581deaths": 6561, "\u2581link": 6562, "\u2581moord": 6563, "\u2581voortbring": 6564, "\u2581impact": 6565, "\u2581ingestem": 6566, "\u2581isolated": 6567, "\u2581opsie": 6568, "\u2581production": 6569, "els": 6570, "\u2581begotten": 6571, "\u2581comforting": 6572, "\u2581facing": 6573, "\u2581le\u00eb": 6574, "\u2581rivers": 6575, "\u2581rukkie": 6576, "\u2581sets": 6577, "\u2581sources": 6578, "fa": 6579, "han": 6580, "rig": 6581, "\u00eare": 6582, "\u2581Child": 6583, "\u2581degrees": 6584, "\u2581geeste": 6585, "\u2581grain": 6586, "\u2581l": 6587, "\u2581ontspanning": 6588, "\u2581verhuis": 6589, "Open": 6590, "Ver": 6591, "jie": 6592, "sin": 6593, "\u2581Bybelkennis": 6594, "\u2581highest": 6595, "\u2581industry": 6596, "\u2581korrek": 6597, "\u2581kwessie": 6598, "\u2581omring": 6599, "\u2581ont": 6600, "\u2581readers": 6601, "\u2581uiterste": 6602, "\u2581visse": 6603, "diens": 6604, "set": 6605, "\u2581Galilee": 6606, "\u2581admitted": 6607, "\u2581approached": 6608, "\u2581bekeer": 6609, "\u2581gemerk": 6610, "\u2581hoegenaamd": 6611, "\u2581lekker": 6612, "\u2581permission": 6613, "ders": 6614, "\u25811987": 6615, "\u258129:": 6616, "\u2581Institute": 6617, "\u2581Vi": 6618, "\u2581deaf": 6619, "\u2581dignity": 6620, "\u2581dwing": 6621, "\u2581elemente": 6622, "\u2581existing": 6623, "\u2581reasoning": 6624, "\u2581verag": 6625, "\u2581vryelik": 6626, "GenericName": 6627, "\u2581Current": 6628, "\u2581Year": 6629, "\u2581commercial": 6630, "\u2581dek": 6631, "\u2581depressed": 6632, "\u2581documents": 6633, "\u2581gedrink": 6634, "ny": 6635, "\u2581facilities": 6636, "\u2581greed": 6637, "\u2581hiervoor": 6638, "inligting": 6639, "\u2581daagliks": 6640, "\u2581direk": 6641, "\u2581noise": 6642, "\u2581selfsugtige": 6643, "\u2581vermaning": 6644, "ac": 6645, "maak": 6646, "\u2581allowing": 6647, "\u2581product": 6648, "\u2581rand": 6649, "\u2581reflected": 6650, "\u2581ships": 6651, "\u2581teeth": 6652, "\u00fc": 6653, "\u2581Lys": 6654, "\u2581Welcome": 6655, "\u2581heersers": 6656, "\u2581noordelike": 6657, "\u2581ooreen": 6658, "\u2581stage": 6659, "\u2581voorwerp": 6660, "\u2581Mettertyd": 6661, "\u2581Thou": 6662, "\u2581demonstrated": 6663, "\u2581gelowiges": 6664, "\u2581officer": 6665, "\u2581onheil": 6666, "\u2581tensy": 6667, "\u2581belongs": 6668, "\u2581beroep": 6669, "\u2581empire": 6670, "\u2581gained": 6671, "\u2581previously": 6672, "\u2581repeatedly": 6673, "\u2581saving": 6674, "\u2581spreker": 6675, "\u2581acting": 6676, "\u2581behoorlik": 6677, "\u2581buitengewone": 6678, "\u2581fundamental": 6679, "\u2581onto": 6680, "\u2581periods": 6681, "\u2581protected": 6682, "\u2581raaisel": 6683, "\u2581seventh": 6684, "\u2581shed": 6685, "Go": 6686, "\u2581OP": 6687, "\u2581Ta": 6688, "\u2581bydraes": 6689, "\u2581geskenke": 6690, "\u2581ha": 6691, "\u2581juk": 6692, "\u2581starting": 6693, "way": 6694, "\u258114]": 6695, "\u25815;": 6696, "\u2581Rooms": 6697, "\u2581associate": 6698, "\u2581condemned": 6699, "\u2581drop": 6700, "\u2581eksemplare": 6701, "\u2581gestudeer": 6702, "\u2581kla": 6703, "\u2581lift": 6704, "\u2581paying": 6705, "\u2581port": 6706, "\u2581terselfdertyd": 6707, "\u2581144": 6708, "\u2581Protestant": 6709, "\u2581bos": 6710, "\u2581dak": 6711, "\u2581geestelikheid": 6712, "\u2581geldige": 6713, "\u2581hell": 6714, "\u2581nakomelinge": 6715, "\u2581sewende": 6716, "\u2581solve": 6717, "\u2581Rooi": 6718, "\u2581Tab": 6719, "\u2581Ve": 6720, "\u2581characters": 6721, "\u2581civil": 6722, "\u2581distant": 6723, "\u2581glas": 6724, "\u2581klippe": 6725, "\u2581testimony": 6726, "\u2581vriendelike": 6727, "uk": 6728, "\u2581Following": 6729, "\u2581finale": 6730, "\u2581happening": 6731, "\u2581routine": 6732, "40": 6733, "\u2581Portugal": 6734, "\u2581discernment": 6735, "\u2581fleshly": 6736, "\u2581identity": 6737, "\u2581murder": 6738, "\u2581wings": 6739, "\u2581Sp": 6740, "\u2581commission": 6741, "\u2581differences": 6742, "\u2581perd": 6743, "ou": 6744, "\u2581AND": 6745, "\u2581Archive": 6746, "\u2581Luister": 6747, "\u2581finds": 6748, "\u2581memo": 6749, "\u2581onderwyser": 6750, "\u2581ongelowige": 6751, "\u25811940": 6752, "\u2581Bet": 6753, "\u2581Happy": 6754, "\u2581VIR": 6755, "\u2581benut": 6756, "\u2581judges": 6757, "\u2581maaltyd": 6758, "\u2581thereafter": 6759, "\u2581w\u00eareldse": 6760, "\u2581Paulo": 6761, "\u2581Shortly": 6762, "\u2581aandeel": 6763, "\u2581chapters": 6764, "\u2581dienaar": 6765, "\u2581difficulty": 6766, "\u2581dors": 6767, "\u2581extra": 6768, "\u2581sny": 6769, "\u2581teenoorgestelde": 6770, "\u2581verpligting": 6771, "ari": 6772, "use": 6773, "\u2581Onbekende": 6774, "\u2581buried": 6775, "\u2581certificate": 6776, "\u2581filter": 6777, "\u2581innerlike": 6778, "\u2581nut": 6779, "\u00ef": 6780, "\u2581Abram": 6781, "\u2581Bron": 6782, "\u2581Bybellektuur": 6783, "\u2581Nathan": 6784, "\u2581Wissel": 6785, "\u2581depends": 6786, "\u2581lamp": 6787, "\u2581readily": 6788, "\u2581teenstanders": 6789, "\u2581voortgegaan": 6790, "ji": 6791, "\u2581absolute": 6792, "\u2581alert": 6793, "\u2581bright": 6794, "\u2581correctly": 6795, "\u2581enigeen": 6796, "\u2581gewilde": 6797, "\u2581omsien": 6798, "\u2581strate": 6799, "ans": 6800, "middel": 6801, "\u2581Mi": 6802, "\u2581Scientist": 6803, "\u2581aangenaam": 6804, "\u2581noodwendig": 6805, "\u2581vain": 6806, "\u2581Desktop": 6807, "\u2581Font": 6808, "\u2581Halls": 6809, "\u2581Sovereign": 6810, "\u2581acted": 6811, "\u2581komende": 6812, "\u2581samewerking": 6813, "\u2581simbool": 6814, "\u2581wy": 6815, "don": 6816, "leer": 6817, "\u25811984": 6818, "\u2581amazing": 6819, "\u2581concerns": 6820, "\u2581der": 6821, "\u2581godgegewe": 6822, "\u2581seeds": 6823, "\u2581symbolic": 6824, "begrip": 6825, "\u258131,": 6826, "\u2581Configure": 6827, "\u2581Options": 6828, "\u2581Ri": 6829, "\u2581camps": 6830, "\u2581central": 6831, "\u2581ho": 6832, "\u2581interessante": 6833, "\u2581thrown": 6834, "\u2581verkondiging": 6835, "\u2581verwek": 6836, "low": 6837, "\u25812003": 6838, "\u2581Kor": 6839, "\u2581approved": 6840, "\u2581koper": 6841, "\u2581motivated": 6842, "\u2581post": 6843, "\u2581pressures": 6844, "\u2581bow": 6845, "\u2581demand": 6846, "\u2581feast": 6847, "\u2581historical": 6848, "\u2581infected": 6849, "\u2581rely": 6850, "\u2581Association": 6851, "\u2581Master": 6852, "\u2581defined": 6853, "\u2581finish": 6854, "\u2581gedood": 6855, "\u2581leader": 6856, "\u2581leerlinge": 6857, "\u2581module": 6858, "\u2581spirituality": 6859, "\u2581spouse": 6860, "80": 6861, "\u2581Heb": 6862, "\u2581Heights": 6863, "\u2581Nehemiah": 6864, "\u2581Port": 6865, "\u2581Women": 6866, "\u2581dodelike": 6867, "\u2581outcome": 6868, "\u2581torture": 6869, "En": 6870, "\u2581(1": 6871, "\u2581Congregation": 6872, "\u2581bevrediging": 6873, "\u2581devoted": 6874, "\u2581fought": 6875, "\u2581holds": 6876, "\u2581ondermyn": 6877, "\u2581openlik": 6878, "\u2581vloei": 6879, "\u2581voorregte": 6880, "\u2581Martha": 6881, "\u2581Zechariah": 6882, "\u2581capable": 6883, "\u2581materials": 6884, "\u2581rasse": 6885, "\u2581skynbaar": 6886, "\u2581verborge": 6887, "\u2581vinniger": 6888, "\u2581wildernis": 6889, "iete": 6890, "that": 6891, "\u2581EK": 6892, "\u2581dankbaarheid": 6893, "\u2581farm": 6894, "\u2581uiteengesit": 6895, "\u2581vorste": 6896, "\u2581Little": 6897, "\u2581beswaar": 6898, "\u2581driving": 6899, "\u2581gesinslede": 6900, "\u2581ruling": 6901, "\u2581structure": 6902, "Al": 6903, "\u2581Press": 6904, "\u2581genaamd": 6905, "\u2581lady": 6906, "\u2581losing": 6907, "\u2581metodes": 6908, "\u2581vanuit": 6909, "\u2581verwagtinge": 6910, "\u2581worry": 6911, "las": 6912, "\u2581explanation": 6913, "\u2581flight": 6914, "\u2581gesinslewe": 6915, "\u2581gratitude": 6916, "\u2581intelligent": 6917, "\u2581meditate": 6918, "\u2581pollution": 6919, "\u2581versorg": 6920, "\u2581Background": 6921, "\u2581Hosea": 6922, "\u2581aanskou": 6923, "\u2581blame": 6924, "\u2581eis": 6925, "\u2581executed": 6926, "\u2581possessions": 6927, "\u2581ryp": 6928, "\u2581wens": 6929, "ju": 6930, "will": 6931, "\u2581Empire": 6932, "\u2581beloofde": 6933, "\u2581childhood": 6934, "\u2581daarvandaan": 6935, "\u2581lion": 6936, "\u2581simboliese": 6937, "\u2581dwaas": 6938, "\u2581enjoying": 6939, "\u2581onskuldige": 6940, "\u2581stort": 6941, "\u2581Sertifikaat": 6942, "\u2581gehalte": 6943, "\u2581headquarters": 6944, "\u2581toetse": 6945, "Gaan": 6946, "\u2581Bas": 6947, "\u2581Henry": 6948, "\u2581Sion": 6949, "\u2581bely": 6950, "\u2581discern": 6951, "\u2581extended": 6952, "\u2581narrow": 6953, "\u2581opgelei": 6954, "\u2581scholar": 6955, "\u2581sides": 6956, "\u2581skepe": 6957, "\u2581talked": 6958, "\u2581tear": 6959, "\u2581tool": 6960, "NW": 6961, "lang": 6962, "tin": 6963, "\u2581Minister": 6964, "\u2581adopted": 6965, "\u2581arrangements": 6966, "\u2581geslaag": 6967, "\u2581malaria": 6968, "\u2581redelike": 6969, "\u2581koester": 6970, "\u2581lag": 6971, "\u2581meaningful": 6972, "\u2581vermoor": 6973, "loop": 6974, "\u2581Bybelstudies": 6975, "\u2581GNU": 6976, "\u2581Passover": 6977, "\u2581deliverance": 6978, "\u2581gek": 6979, "\u2581invite": 6980, "\u2581preserve": 6981, "\u2581shut": 6982, "\u2581survived": 6983, "\u2581traffic": 6984, "lus": 6985, "\u25811983": 6986, "\u2581Kersfees": 6987, "\u2581balans": 6988, "\u2581endured": 6989, "\u2581onderdruk": 6990, "\u2581uitgestuur": 6991, "\u2581viewpoint": 6992, "kon": 6993, "\u2581Knorr": 6994, "\u2581behoue": 6995, "\u2581existed": 6996, "\u2581ingang": 6997, "\u2581reputasie": 6998, "\u2581seconds": 6999, "\u2581spending": 7000, "ane": 7001, "\u2581Document": 7002, "\u2581Gentiles": 7003, "\u2581Scripture": 7004, "\u2581climate": 7005, "\u2581disorder": 7006, "TER": 7007, "del": 7008, "plek": 7009, "\u2581Know": 7010, "\u2581Tom": 7011, "\u2581User": 7012, "\u2581dro\u00eb": 7013, "\u2581loper": 7014, "\u2581middag": 7015, "\u2581skole": 7016, "\u2581widespread": 7017, "IA": 7018, "izing": 7019, "led": 7020, "\u2581//": 7021, "\u2581Preferences": 7022, "\u2581Rom": 7023, "\u2581Self": 7024, "\u2581drawing": 7025, "\u2581knight": 7026, "\u2581leeu": 7027, "\u2581netwerk": 7028, "\u2581ontsteld": 7029, "\u2581shortly": 7030, "\u2581verbly": 7031, "gat": 7032, "\u2581Saam": 7033, "\u2581Try": 7034, "\u2581burgers": 7035, "\u2581courageous": 7036, "\u2581native": 7037, "\u2581stands": 7038, "\u2581surrounded": 7039, "reg": 7040, "\u2581800": 7041, "\u2581Nehemia": 7042, "\u2581block": 7043, "\u2581dialog": 7044, "\u2581gesindhede": 7045, "\u2581hierbo": 7046, "\u2581twaalf": 7047, "lewe": 7048, "symbol": 7049, "\u2581Hoekom": 7050, "\u2581Hope": 7051, "\u2581Modern": 7052, "\u2581beurt": 7053, "\u2581catch": 7054, "\u2581exercising": 7055, "\u2581leerstelling": 7056, "\u2581merciful": 7057, "\u2581ras": 7058, "\u2581subjection": 7059, "\u2581trusted": 7060, "\u2581verval": 7061, "\u2581vreemdelinge": 7062, "\u2581whereas": 7063, "ice": 7064, "\u2581Calendar": 7065, "\u2581Certificate": 7066, "\u2581contents": 7067, "\u2581literal": 7068, "\u2581metode": 7069, "\u2581mourning": 7070, "\u2581onsigbare": 7071, "\u2581persecuted": 7072, "\u2581remembered": 7073, "\u2581repentance": 7074, "\u2581tou": 7075, "70": 7076, "nder": 7077, "\u2581(4)": 7078, "\u2581Bybelwaarhede": 7079, "\u2581Elisha": 7080, "\u2581Language": 7081, "\u2581Staat": 7082, "\u2581individuele": 7083, "\u2581spake": 7084, "\u2581vereer": 7085, "\u2581verhoudings": 7086, "\u2581verlang": 7087, "\u2581=": 7088, "\u2581Lu": 7089, "\u2581fears": 7090, "\u2581hoofstukke": 7091, "\u2581magte": 7092, "\u2581nabygele\u00eb": 7093, "\u2581pioneering": 7094, "\u2581struikel": 7095, "AM": 7096, "ov": 7097, "\u2581Interestingly": 7098, "\u2581Kind": 7099, "\u2581Liefde": 7100, "\u2581Weer": 7101, "\u2581aanbeveel": 7102, "\u2581fifth": 7103, "\u2581myne": 7104, "\u2581pret": 7105, "\u2581skuiwe": 7106, "\u2581sufficient": 7107, "\u2581talks": 7108, "\u2581wisely": 7109, "dia": 7110, "\u2581Bly": 7111, "\u2581Chronicles": 7112, "\u2581Draw": 7113, "\u2581aangedui": 7114, "\u2581com": 7115, "\u2581focused": 7116, "\u2581perish": 7117, "\u2581villages": 7118, "Who": 7119, "\u258139.": 7120, "\u2581Herald": 7121, "\u2581Mis": 7122, "\u2581daarteen": 7123, "\u2581generations": 7124, "\u2581searching": 7125, "\u2581verbygaan": 7126, "ska": 7127, "\u258113;": 7128, "\u258164": 7129, "\u2581containing": 7130, "\u2581driver": 7131, "\u2581forests": 7132, "\u2581lifted": 7133, "\u2581reap": 7134, "\u2581remind": 7135, "\u2581returning": 7136, "\u2581tired": 7137, "gids": 7138, "\u2581Andrew": 7139, "\u2581Games": 7140, "\u2581Pentecost": 7141, "\u2581Recall": 7142, "\u2581capacity": 7143, "\u2581commonly": 7144, "\u2581employment": 7145, "\u2581geliefdes": 7146, "\u2581idols": 7147, "\u2581supplies": 7148, "istic": 7149, "vin": 7150, "ya": 7151, "\u2581Egyptian": 7152, "\u2581Luther": 7153, "\u2581Uitvee": 7154, "\u2581branches": 7155, "\u2581contributed": 7156, "\u2581foolish": 7157, "\u2581kantoor": 7158, "\u2581onreg": 7159, "\u2581prag": 7160, "\u2581primarily": 7161, "\u2581staff": 7162, "\u2581willingly": 7163, "ex": 7164, "gel": 7165, "\u258161": 7166, "\u2581Jo": 7167, "\u2581Much": 7168, "\u2581Susan": 7169, "\u2581bedreiging": 7170, "\u2581blare": 7171, "\u2581brethren": 7172, "\u2581covering": 7173, "\u2581ensure": 7174, "\u2581ontwikkelende": 7175, "\u2581records": 7176, "\u2581review": 7177, "\u2581skrif": 7178, "\u2581speler": 7179, "\u2581vasgestel": 7180, "groep": 7181, "\u2581Gen": 7182, "\u2581Kronieke": 7183, "\u2581cattle": 7184, "\u2581loud": 7185, "0,000": 7186, "aars": 7187, "rou": 7188, "row": 7189, "\u25811930": 7190, "\u2581Ammon": 7191, "\u2581HJ": 7192, "\u2581aksie": 7193, "\u2581ashamed": 7194, "\u2581delay": 7195, "\u2581instellings": 7196, "\u2581mistake": 7197, "\u2581referring": 7198, "\u2581reliable": 7199, "\u2581sukkel": 7200, "\u2581uitgebeeld": 7201, "\u2581wreed": 7202, "\u25811918": 7203, "\u2581Russiese": 7204, "\u2581debt": 7205, "\u2581equipment": 7206, "\u2581glass": 7207, "\u2581measures": 7208, "\u2581palm": 7209, "\u2581separated": 7210, "\u2581smaller": 7211, "\u2581voortdurende": 7212, "\u2581west": 7213, "aw": 7214, "ical": 7215, "ts": 7216, "\u2581Diagram": 7217, "\u2581Sondag": 7218, "\u2581bought": 7219, "\u2581comment": 7220, "\u2581jaarlikse": 7221, "\u2581rare": 7222, "\u2581toegerus": 7223, "\u2581verwoesting": 7224, "\u2581Boodskap": 7225, "\u2581awake": 7226, "\u2581babies": 7227, "\u2581gewas": 7228, "\u2581klimaat": 7229, "\u2581letterlike": 7230, "\u2581opgebou": 7231, "\u2581voetstappe": 7232, "Wees": 7233, "ette": 7234, "\u00fa": 7235, "\u2581Authority": 7236, "\u2581bedienaar": 7237, "\u2581geskrewe": 7238, "\u2581liefhebbers": 7239, "\u2581raising": 7240, "\u2581riviere": 7241, "\u2581till": 7242, "\u2581vooruit": 7243, "\u2581vrye": 7244, "\u2581weggeneem": 7245, "win": 7246, "\u25812005": 7247, "\u2581Konqueror": 7248, "\u2581blootgestel": 7249, "\u2581boosheid": 7250, "\u2581gehandel": 7251, "\u2581harsh": 7252, "\u2581org": 7253, "\u2581sekondes": 7254, "\u2581skoonheid": 7255, "\u2581strik": 7256, "\u2581theocratic": 7257, "\u2581units": 7258, "\u2581vlerke": 7259, "dan": 7260, "\u2581Promised": 7261, "\u2581admits": 7262, "\u2581cure": 7263, "\u2581encourages": 7264, "\u2581owerhede": 7265, "\u2581producing": 7266, "\u2581selection": 7267, "\u2581slowly": 7268, "25": 7269, "cha": 7270, "\u2581abilities": 7271, "\u2581eindig": 7272, "\u2581kook": 7273, "\u2581professional": 7274, "\u2581schedule": 7275, "\u2581texts": 7276, "\u2581Beloof": 7277, "\u2581Living": 7278, "\u2581applications": 7279, "\u2581instructed": 7280, "\u2581Levi": 7281, "\u2581assosieer": 7282, "\u2581dienskneg": 7283, "\u2581guilt": 7284, "\u2581re\u00eblings": 7285, "\u2581totally": 7286, "\u2581vrygestel": 7287, "okratiese": 7288, "shi": 7289, "\u2581beskikbare": 7290, "\u2581fly": 7291, "\u2581glimlag": 7292, "\u2581goats": 7293, "\u2581ingegaan": 7294, "\u2581repent": 7295, "\u2581survival": 7296, "\u2581sustain": 7297, "\u2581wissel": 7298, "druk": 7299, "ica": 7300, "\u2581Republiek": 7301, "\u2581desert": 7302, "\u2581faithfulness": 7303, "\u2581le\u00ebrs": 7304, "\u2581tropiese": 7305, "\u2581wholesome": 7306, "\u2581Sin": 7307, "\u2581accepting": 7308, "\u2581ballingskap": 7309, "\u2581descendants": 7310, "\u2581intended": 7311, "\u2581match": 7312, "\u2581produkte": 7313, "\u2581residents": 7314, "\u2581smart": 7315, "\u25812009": 7316, "\u258130:": 7317, "\u2581607": 7318, "\u2581Files": 7319, "\u2581beskeie": 7320, "\u2581chemical": 7321, "\u2581kg": 7322, "\u2581wese": 7323, "boek": 7324, "\u2581Password": 7325, "\u2581bedien": 7326, "\u2581oplos": 7327, "rate": 7328, "\u2581700": 7329, "\u2581Lamb": 7330, "\u2581Ou": 7331, "\u2581bekwame": 7332, "\u2581betroubaar": 7333, "\u2581da": 7334, "\u2581daarheen": 7335, "\u2581doeltreffende": 7336, "\u2581heg": 7337, "\u2581herken": 7338, "\u2581oorsake": 7339, "\u2581verlo\u00ebn": 7340, "\u2581Messianic": 7341, "\u2581Psalms": 7342, "\u2581begun": 7343, "\u2581blom": 7344, "\u2581ethnic": 7345, "\u2581opkom": 7346, "\u2581tropical": 7347, "\u2581worker": 7348, "sak": 7349, "\u2581Mer": 7350, "\u2581Truly": 7351, "\u2581assignments": 7352, "\u2581campaign": 7353, "\u2581click": 7354, "\u2581cruel": 7355, "\u2581hungry": 7356, "\u2581identiteit": 7357, "\u2581strand": 7358, "\u2581verstandelike": 7359, "\u2581verteer": 7360, "\u2581welfare": 7361, "ities": 7362, "iz": 7363, "ters": 7364, "\u258155:": 7365, "\u2581Pole": 7366, "\u2581acknowledge": 7367, "\u2581gehuil": 7368, "\u2581Corinth": 7369, "\u2581Stille": 7370, "\u2581assurance": 7371, "\u2581ges": 7372, "\u2581ocean": 7373, "\u2581pen": 7374, "AD": 7375, "ram": 7376, "\u2581Pilatus": 7377, "\u2581Po": 7378, "\u2581bewind": 7379, "\u2581cease": 7380, "\u2581delete": 7381, "\u2581reduced": 7382, "\u2581seksueel": 7383, "60": 7384, "ble": 7385, "side": 7386, "sprobleme": 7387, "\u2581Contents": 7388, "\u2581Koninkryksale": 7389, "\u2581beeste": 7390, "\u2581besoedeling": 7391, "\u2581crisis": 7392, "\u2581moeiliker": 7393, "\u2581pregnant": 7394, "\u2581reproach": 7395, "\u2581skaal": 7396, "\u2581spyt": 7397, "\u2581waarskuwings": 7398, "oli": 7399, "tipe": 7400, "\u25812,000": 7401, "\u2581floreer": 7402, "\u2581geteister": 7403, "\u2581linked": 7404, "\u2581toesprake": 7405, "\u2581volledige": 7406, "\u2581vrymoedigheid": 7407, "stel": 7408, "\u2581aanspoor": 7409, "\u2581accompanied": 7410, "\u2581eggs": 7411, "\u2581gery": 7412, "\u2581heiliges": 7413, "\u2581ideal": 7414, "\u2581management": 7415, "\u2581repeated": 7416, "\u2581speletjies": 7417, "\u2581tak": 7418, "\u2581throw": 7419, "fe": 7420, "iseer": 7421, "\u2581Alexander": 7422, "\u2581Nietemin": 7423, "\u2581Part": 7424, "\u2581beperkte": 7425, "\u2581deskundiges": 7426, "\u2581disabled": 7427, "\u2581feeding": 7428, "\u2581flying": 7429, "\u2581machine": 7430, "\u2581Grootte": 7431, "\u2581Messiaanse": 7432, "\u2581koningin": 7433, "\u2581saamstem": 7434, "\u2581styg": 7435, "\u2581vat": 7436, "lot": 7437, "uur": 7438, "\u2581D\u00edt": 7439, "\u2581Miljoene": 7440, "\u2581Reg": 7441, "\u2581believing": 7442, "\u2581bind": 7443, "\u2581etniese": 7444, "\u2581geskille": 7445, "\u2581patroon": 7446, "\u2581ring": 7447, "\u2581sigbare": 7448, "IL": 7449, "\u2581Finland": 7450, "\u2581Malachi": 7451, "\u2581Marriage": 7452, "\u2581Ur": 7453, "\u2581aangeval": 7454, "\u2581friendly": 7455, "\u2581koffie": 7456, "\u2581oortuigings": 7457, "\u2581pynlike": 7458, "\u2581y": 7459, "gaande": 7460, "\u2581brotherhood": 7461, "\u2581creating": 7462, "\u2581expensive": 7463, "\u2581modest": 7464, "\u2581oorlede": 7465, "\u2581plague": 7466, "\u2581strike": 7467, "bou": 7468, "kies": 7469, "\u2581Gu": 7470, "\u2581Maleagi": 7471, "\u2581Mars": 7472, "\u2581Orthodox": 7473, "\u2581Run": 7474, "\u2581Studies": 7475, "\u2581erfdeel": 7476, "\u2581geskei": 7477, "\u2581inclined": 7478, "\u2581kroon": 7479, "\u2581monitor": 7480, "\u2581virtually": 7481, "ks": 7482, "\u2581Import": 7483, "\u2581SONGS": 7484, "\u2581gevang": 7485, "\u2581insects": 7486, "\u2581suksesvolle": 7487, "\u2581treasures": 7488, "\u2581voortreflike": 7489, "gar": 7490, "vir": 7491, "\u2581Cha": 7492, "\u2581HTML": 7493, "\u2581Jordaan": 7494, "\u2581altesaam": 7495, "\u2581bestaande": 7496, "\u2581occurs": 7497, "\u2581prefer": 7498, "\u2581thankful": 7499, "\u2581vars": 7500, "\u2581vleeslike": 7501, "\u258195": 7502, "\u2581Albert": 7503, "\u2581Kde": 7504, "\u2581healed": 7505, "\u2581verbygegaan": 7506, "\u2581verplig": 7507, "\u2581ONS": 7508, "\u2581WHO": 7509, "\u2581appointment": 7510, "\u2581gambling": 7511, "\u2581hebsug": 7512, "\u2581mishandel": 7513, "\u2581preparing": 7514, "\u2581slavery": 7515, "\u2581soeke": 7516, "\u2581tere": 7517, "\u258136.": 7518, "\u2581Pilate": 7519, "\u2581Review": 7520, "\u2581afflicted": 7521, "\u2581beroemde": 7522, "\u2581depend": 7523, "\u2581eliminate": 7524, "\u2581geslagsomgang": 7525, "\u2581reads": 7526, "\u2581spesifiek": 7527, "\u2581syfers": 7528, "\u2581vergaan": 7529, "\u2581wraak": 7530, "organisasie": 7531, "\u2581Wag": 7532, "\u2581Wisdom": 7533, "\u2581desktop": 7534, "\u2581onderwerpe": 7535, "\u2581pi": 7536, "\u2581possibility": 7537, "\u2581rightly": 7538, "\u2581voortgebring": 7539, "\u2581vreemdeling": 7540, "\u2581vyfde": 7541, "\u2581waves": 7542, "\u2581wins": 7543, "\u2581w\u00earelddele": 7544, "waarde": 7545, "\u2581Ex": 7546, "\u2581Huidige": 7547, "\u2581Krugersdorp": 7548, "\u2581aanbied": 7549, "\u2581ages": 7550, "\u2581broederskap": 7551, "\u2581i": 7552, "\u2581mile": 7553, "\u2581minimum": 7554, "\u2581sertifikaat": 7555, "\u2581silent": 7556, "\u2581stowwe": 7557, "\u2581verduideliking": 7558, "\u2581whatsthis": 7559, "\u2581wolk": 7560, "kamer": 7561, "ud": 7562, "ville": 7563, "\u25811943": 7564, "\u2581250": 7565, "\u2581betekenisvolle": 7566, "\u2581bykomende": 7567, "\u2581gepaardgaan": 7568, "\u2581income": 7569, "\u2581pleasing": 7570, "\u2581waarborg": 7571, "dom": 7572, "\u25812008": 7573, "\u2581Ba\u00e4l": 7574, "\u2581Library": 7575, "\u2581aanvalle": 7576, "\u2581engaged": 7577, "\u2581exact": 7578, "\u2581motivate": 7579, "\u2581surrounding": 7580, "ken": 7581, "\u2581Lake": 7582, "\u2581Were": 7583, "\u2581adding": 7584, "\u2581amptelike": 7585, "\u2581begeer": 7586, "\u2581genesing": 7587, "\u2581gesalf": 7588, "\u2581geskreeu": 7589, "\u2581gevange": 7590, "\u2581harder": 7591, "\u2581necessarily": 7592, "\u2581ooreenkoms": 7593, "bi": 7594, "kop": 7595, "lic": 7596, "ok": 7597, "q": 7598, "soos": 7599, "\u2581Cain": 7600, "\u2581Lazarus": 7601, "\u2581Middle": 7602, "\u2581Network": 7603, "\u2581Skakel": 7604, "\u2581[2": 7605, "\u2581cared": 7606, "\u2581deurbring": 7607, "\u2581fishing": 7608, "\u2581gedeelte": 7609, "\u2581hond": 7610, "\u2581kragtig": 7611, "\u2581minus": 7612, "\u2581owner": 7613, "\u2581route": 7614, "\u2581sensitive": 7615, "\u2581sexually": 7616, "wing": 7617, "\u258137.": 7618, "\u2581Afrikaans": 7619, "\u2581Israelitiese": 7620, "\u2581NY": 7621, "\u2581Privaats": 7622, "\u2581Soewerein": 7623, "\u2581Stephen": 7624, "\u2581TB": 7625, "\u2581Years": 7626, "\u2581acknowledged": 7627, "\u2581hunger": 7628, "\u2581kritieke": 7629, "\u2581stream": 7630, "\u2581stronger": 7631, "\u2581traditions": 7632, "\u2581tydelik": 7633, "\u2581vinnige": 7634, "\u25812;": 7635, "\u2581Doing": 7636, "\u2581NASA": 7637, "\u2581ekstra": 7638, "\u2581equipped": 7639, "\u2581flow": 7640, "\u2581gedoopte": 7641, "\u2581gemiddeld": 7642, "\u2581skande": 7643, "\u2581sorts": 7644, "\u2581swakhede": 7645, "ku": 7646, "likheid": 7647, "mis": 7648, "\u2581Bring": 7649, "\u2581Department": 7650, "\u2581Goed": 7651, "\u2581column": 7652, "\u2581differ": 7653, "\u2581email": 7654, "\u2581flag": 7655, "\u2581kante": 7656, "\u2581prey": 7657, "\u2581suitable": 7658, "\u2581Babiloniese": 7659, "\u2581Chi": 7660, "\u2581Lasarus": 7661, "\u2581calamity": 7662, "\u2581dieper": 7663, "\u2581emotionally": 7664, "\u2581geoffer": 7665, "\u2581latter": 7666, "\u2581ongehoorsaam": 7667, "\u2581tasks": 7668, "jies": 7669, "\u25819;": 7670, "\u2581Maker": 7671, "\u2581Volg": 7672, "\u2581bevredigende": 7673, "\u2581desired": 7674, "\u2581emosioneel": 7675, "\u2581initiative": 7676, "\u2581leier": 7677, "\u2581opposed": 7678, "\u2581policy": 7679, "\u2581sorrow": 7680, "2067,": 7681, "zo": 7682, "\u2581Almagtige": 7683, "\u2581Explain": 7684, "\u2581abandon": 7685, "\u2581attachment": 7686, "\u2581liewer": 7687, "\u2581politiek": 7688, "\u2581uitgawe": 7689, "\u2581vuil": 7690, "UN": 7691, "speletjies": 7692, "\u2581$": 7693, "\u2581Inteendeel": 7694, "\u2581Put": 7695, "\u2581Research": 7696, "\u2581figuurlike": 7697, "\u2581partner": 7698, "bedryf": 7699, "\u258111201": 7700, "\u258138.": 7701, "\u2581Contact": 7702, "\u2581Herod": 7703, "\u2581admit": 7704, "\u2581vaardighede": 7705, "\u25816;": 7706, "\u2581Frank": 7707, "\u2581Full": 7708, "\u2581Kain": 7709, "\u2581delighted": 7710, "\u2581kliek": 7711, "\u2581maatskappy": 7712, "\u2581neck": 7713, "\u2581produces": 7714, "\u2581reuse": 7715, "\u2581st": 7716, "\u2581upper": 7717, "bin": 7718, "nuwe": 7719, "\u2581automatically": 7720, "\u2581ervare": 7721, "\u2581fault": 7722, "\u2581fed": 7723, "\u2581spruit": 7724, "\u2581tydstip": 7725, "\u2581vierkante": 7726, "\u2581worst": 7727, "aat": 7728, "ey": 7729, "put": 7730, "\u2581Bybels": 7731, "\u2581Central": 7732, "\u2581Custom": 7733, "\u2581Description": 7734, "\u2581Par": 7735, "\u2581Tar": 7736, "\u2581conflicts": 7737, "\u2581continually": 7738, "\u2581hewige": 7739, "\u2581informed": 7740, "\u2581oorspronklik": 7741, "\u2581toevlug": 7742, "RI": 7743, "ath": 7744, "\u2581beleid": 7745, "\u2581crown": 7746, "\u2581firstborn": 7747, "\u2581sagte": 7748, "fo": 7749, "mon": 7750, "\u2581associates": 7751, "\u2581beker": 7752, "\u2581clock": 7753, "\u2581gene": 7754, "\u2581injury": 7755, "\u2581soortgelyk": 7756, "\u2581sorgvuldig": 7757, "\u2581typical": 7758, "\u2581wolke": 7759, "hr": 7760, "\u2581Live": 7761, "\u2581MY": 7762, "\u2581Natuurlik": 7763, "\u2581fair": 7764, "\u2581gesmeek": 7765, "\u2581gunstig": 7766, "\u2581oorheers": 7767, "\u2581psalm": 7768, "\u2581repentant": 7769, "\u2581sentence": 7770, "moet": 7771, "rat": 7772, "\u2581Messages": 7773, "\u2581execute": 7774, "\u2581gates": 7775, "\u2581geweldige": 7776, "\u2581nek": 7777, "\u2581serpent": 7778, "\u2581vgl": 7779, "lam": 7780, "\u2581Sagaria": 7781, "\u2581Standard": 7782, "\u2581bereken": 7783, "\u2581ch": 7784, "\u2581closed": 7785, "\u2581dies": 7786, "\u2581entry": 7787, "\u2581fa": 7788, "\u2581latere": 7789, "\u2581maintaining": 7790, "\u2581onderhoud": 7791, "\u2581rolprente": 7792, "\u2581Parys": 7793, "\u2581entirely": 7794, "\u2581execution": 7795, "\u2581hawe": 7796, "\u2581idolatry": 7797, "\u2581opge": 7798, "\u2581pragtig": 7799, "\u2581sorge": 7800, "\u2581tempted": 7801, "50": 7802, "Re": 7803, "ei": 7804, "\u2581Sabbath": 7805, "\u2581Sonder": 7806, "\u2581bande": 7807, "\u2581betreklik": 7808, "\u2581distributed": 7809, "\u2581lo": 7810, "\u2581skrap": 7811, "\u2581towns": 7812, "\u2581transfusions": 7813, "\u2581verlei": 7814, "\u2581voorts": 7815, "75": 7816, "slag": 7817, "\u2581Est": 7818, "\u2581Gi": 7819, "\u2581Granted": 7820, "\u2581Ortodokse": 7821, "\u2581Ram": 7822, "\u2581bedryf": 7823, "\u2581beskouings": 7824, "\u2581plenty": 7825, "90": 7826, "ien": 7827, "onstellation": 7828, "\u2581Gedenkmaal": 7829, "\u2581Lig": 7830, "\u2581Top": 7831, "\u2581Trust": 7832, "\u2581achieve": 7833, "\u2581breath": 7834, "\u2581disasters": 7835, "\u2581educational": 7836, "\u2581egbreuk": 7837, "\u2581favorite": 7838, "\u2581golden": 7839, "\u2581impression": 7840, "\u2581motors": 7841, "\u2581prejudice": 7842, "\u2581seat": 7843, "\u2581traits": 7844, "kleur": 7845, "lon": 7846, "\u2581Invoer": 7847, "\u2581Near": 7848, "\u2581akkuraat": 7849, "\u2581discouraged": 7850, "\u2581illustrations": 7851, "\u2581immune": 7852, "\u2581initial": 7853, "\u2581legs": 7854, "\u2581somewhat": 7855, "gegee": 7856, "\u2581Bybelprofesie\u00eb": 7857, "\u2581Che": 7858, "\u2581Hor": 7859, "\u2581Sit": 7860, "ore": 7861, "\u25818;": 7862, "\u2581Mac": 7863, "\u2581Mom": 7864, "\u2581eienaar": 7865, "\u2581hoped": 7866, "\u2581styl": 7867, "kin": 7868, "\u2581(19": 7869, "\u2581afgodediens": 7870, "\u2581communications": 7871, "\u2581edge": 7872, "\u2581gekenmerk": 7873, "\u2581paragraaf": 7874, "\u2581raadpleeg": 7875, "\u2581sommer": 7876, "\u2581teenagers": 7877, "\u2581track": 7878, "\u2581verbod": 7879, "Ge": 7880, "form": 7881, "\u2581Kopieer": 7882, "\u2581Weet": 7883, "\u2581bi": 7884, "\u2581criminal": 7885, "\u2581leuen": 7886, "\u2581roem": 7887, "\u2581ruled": 7888, "\u2581seer": 7889, "\u2581uitkyk": 7890, "\u2581verneder": 7891, "\u2581Babylonian": 7892, "\u2581HOE": 7893, "\u2581Wetenskaplikes": 7894, "\u2581belemmer": 7895, "\u2581bewerk": 7896, "\u2581elsewhere": 7897, "\u2581foods": 7898, "\u2581grasp": 7899, "\u2581hated": 7900, "\u2581reminder": 7901, "\u2581womb": 7902, "ab": 7903, "jaar": 7904, "vlak": 7905, "\u2581Hawaii": 7906, "\u2581accused": 7907, "\u2581captivity": 7908, "\u2581daaropvolgende": 7909, "\u2581gebreek": 7910, "\u2581heilsame": 7911, "\u2581immers": 7912, "\u2581miracle": 7913, "\u2581scripture": 7914, "\u2581skaduwee": 7915, "\u2581thick": 7916, "\u2581wapen": 7917, "\u2581wash": 7918, "ita": 7919, "teken": 7920, "wi": 7921, "\u2581armed": 7922, "\u2581dans": 7923, "\u2581depth": 7924, "\u2581farmers": 7925, "\u2581heidene": 7926, "\u2581ooreenkomstig": 7927, "mat": 7928, "ual": 7929, "\u2581Bybelverslag": 7930, "\u2581Dag": 7931, "\u2581Hoof": 7932, "\u2581Joel": 7933, "\u2581Researchers": 7934, "\u2581Worship": 7935, "\u2581coffee": 7936, "\u2581exchange": 7937, "\u2581miraculous": 7938, "\u2581politics": 7939, "\u2581tested": 7940, "\u2581vasgestelde": 7941, "stad": 7942, "\u2581Vatican": 7943, "\u2581actual": 7944, "\u2581hoogtepunt": 7945, "\u2581je": 7946, "\u2581onvolmaaktheid": 7947, "\u2581plat": 7948, "app": 7949, "car": 7950, "deel": 7951, "mark": 7952, "\u2581Darwin": 7953, "\u2581Internasionale": 7954, "\u2581Making": 7955, "\u2581Nebuchadnezzar": 7956, "\u2581bride": 7957, "\u2581gehoorsame": 7958, "\u2581kinder": 7959, "\u2581nuut": 7960, "\u2581opneem": 7961, "\u2581proverb": 7962, "\u2581voordelig": 7963, "\u2581vooroordeel": 7964, "\u2581voorsienings": 7965, "OS": 7966, "Young": 7967, "ini": 7968, "mb": 7969, "\u2581Col": 7970, "\u2581aansoek": 7971, "\u2581aardbewing": 7972, "\u2581belanggestel": 7973, "\u2581clouds": 7974, "\u2581dollar": 7975, "\u2581gebeurtenisse": 7976, "\u2581ge\u00efgnoreer": 7977, "\u2581permit": 7978, "\u2581settled": 7979, "\u2581spoil": 7980, "ook": 7981, "\u25812011": 7982, "\u2581Septuagint": 7983, "\u2581Sir": 7984, "\u2581afgeneem": 7985, "\u2581jaarliks": 7986, "\u2581lankmoedigheid": 7987, "\u2581nommers": 7988, "\u2581onbepaalde": 7989, "\u2581oorvloedig": 7990, "\u2581rapidly": 7991, "\u2581sorry": 7992, "\u2581suide": 7993, "\u2581twelve": 7994, "\u2581voltrek": 7995, "\u2581warfare": 7996, "\u2581yoke": 7997, "od": 7998, "\u2581Avoid": 7999, "\u2581LIEDERE": 8000, "\u2581Mal": 8001, "\u2581disk": 8002, "\u2581eiers": 8003, "\u2581isn": 8004, "\u2581standvastig": 8005, "\u2581wedloop": 8006, "len": 8007, "\u2581Bybeltye": 8008, "\u2581Ga": 8009, "\u2581Hide": 8010, "\u2581Ongea": 8011, "\u2581aandui": 8012, "\u2581goedgekeur": 8013, "\u2581handed": 8014, "\u2581harmonie": 8015, "\u2581immediate": 8016, "\u2581ontmoedig": 8017, "\u2581verswak": 8018, "11": 8019, "Nuwe": 8020, "pan": 8021, "\u2581Additionally": 8022, "\u2581Galilea": 8023, "\u2581Ireland": 8024, "\u2581Millions": 8025, "\u2581enigsins": 8026, "\u2581normaal": 8027, "\u2581satisfy": 8028, "\u2581significance": 8029, "\u2581tabernakel": 8030, "\u2581tallo": 8031, "\u2581uitbreiding": 8032, "\u2581verbasing": 8033, "sels": 8034, "\u25811941": 8035, "\u2581Daarenteen": 8036, "\u2581Iets": 8037, "\u2581aardbewings": 8038, "\u2581admonition": 8039, "\u2581approaching": 8040, "\u2581assures": 8041, "\u2581bone": 8042, "\u2581flood": 8043, "\u2581geleerde": 8044, "\u2581inter": 8045, "\u2581opgelos": 8046, "\u2581permanently": 8047, "\u2581philosophy": 8048, "\u2581pursuing": 8049, "\u2581realm": 8050, "\u2581stelling": 8051, "\u2581toevertrou": 8052, "amp": 8053, "keep": 8054, "\u2581Ca": 8055, "\u2581Da": 8056, "\u2581dringend": 8057, "\u2581forgotten": 8058, "\u2581garments": 8059, "\u2581koepon": 8060, "\u2581requested": 8061, "\u2581respected": 8062, "laat": 8063, "waar": 8064, "\u2581144,000": 8065, "\u2581Status": 8066, "\u2581attain": 8067, "\u2581demands": 8068, "\u2581dertig": 8069, "\u2581deure": 8070, "\u2581hoek": 8071, "\u2581inherited": 8072, "\u2581keys": 8073, "\u2581kommentare": 8074, "\u2581prophesied": 8075, "\u2581rejoicing": 8076, "\u2581scribes": 8077, "\u2581supposed": 8078, "\u2581waartydens": 8079, "\u2581wheat": 8080, "\u2581wrongdoing": 8081, "cal": 8082, "ene": 8083, "houdsopgawe": 8084, "ill": 8085, "ites": 8086, "new": 8087, "\u2581Neither": 8088, "\u2581Ni": 8089, "\u2581addressed": 8090, "\u2581afford": 8091, "\u2581attractive": 8092, "\u2581gehaat": 8093, "\u2581ho\u00ebrskool": 8094, "\u2581middele": 8095, "\u2581muis": 8096, "\u2581pers": 8097, "\u2581pot": 8098, "\u2581sigbaar": 8099, "oc": 8100, "work": 8101, "\u2581Enige": 8102, "\u2581afhanklik": 8103, "\u2581dorpe": 8104, "\u2581falling": 8105, "\u2581gehoop": 8106, "\u2581geselekteer": 8107, "\u2581heiligdom": 8108, "\u2581konteks": 8109, "\u2581preview": 8110, "\u2581strangers": 8111, "\u2581upset": 8112, "\u2581volmaaktheid": 8113, "goedertierenheid": 8114, "\u2581Poland": 8115, "\u2581Si": 8116, "\u2581Viewpoint": 8117, "\u2581bedroef": 8118, "\u2581distribution": 8119, "\u2581klei": 8120, "Your": 8121, "dor": 8122, "geen": 8123, "ps": 8124, "\u2581Bybelboek": 8125, "\u2581Geloof": 8126, "\u2581Invalid": 8127, "\u2581aanduiding": 8128, "\u2581breast": 8129, "\u2581geredeneer": 8130, "\u2581kanse": 8131, "\u2581volunteers": 8132, "LA": 8133, "gebied": 8134, "hang": 8135, "ino": 8136, "w\u00eareld": 8137, "\u2581Algemene": 8138, "\u2581Italiaanse": 8139, "\u2581VN": 8140, "\u2581benadering": 8141, "\u2581devices": 8142, "\u2581filling": 8143, "\u2581gemeenskappe": 8144, "\u2581generous": 8145, "\u2581konsentreer": 8146, "\u2581medemens": 8147, "\u2581pornografie": 8148, "\u2581preserved": 8149, "Jongmense": 8150, "weg": 8151, "\u2581Efese": 8152, "\u2581Elizabeth": 8153, "\u2581Hebreeus": 8154, "\u2581None": 8155, "\u2581Server": 8156, "\u2581dictionary": 8157, "\u2581ingewikkelde": 8158, "\u2581pak": 8159, "\u2581proceeded": 8160, "\u2581resort": 8161, "\u2581soft": 8162, "res": 8163, "\u2581110": 8164, "\u2581Kana\u00e4n": 8165, "\u2581Real": 8166, "\u2581Tree": 8167, "\u2581aangetref": 8168, "\u2581arrival": 8169, "\u2581bewoners": 8170, "\u2581pornography": 8171, "\u2581prime": 8172, "\u2581rage": 8173, "\u2581roetine": 8174, "\u2581za": 8175, "\u2581Everyone": 8176, "\u2581IT": 8177, "\u2581Ongeldige": 8178, "\u2581Scientists": 8179, "\u2581niet": 8180, "\u2581shoulder": 8181, "tri": 8182, "\u2581Ont": 8183, "\u2581almagtige": 8184, "\u2581broeders": 8185, "\u2581connected": 8186, "\u2581inches": 8187, "\u2581kommer": 8188, "\u2581olive": 8189, "ably": 8190, "rige": 8191, "tron": 8192, "\u25811935": 8193, "\u25812010": 8194, "\u2581Things": 8195, "\u2581announced": 8196, "\u2581huisgesin": 8197, "\u2581metgesel": 8198, "\u2581onregverdig": 8199, "\u2581presentation": 8200, "\u2581Blood": 8201, "\u2581Elisa": 8202, "\u2581Mel": 8203, "\u2581arbeid": 8204, "\u2581bees": 8205, "\u2581besondere": 8206, "\u2581bronne": 8207, "\u2581frame": 8208, "\u2581glorify": 8209, "\u2581graan": 8210, "\u2581heal": 8211, "\u2581liggame": 8212, "\u2581lok": 8213, "\u2581parallel": 8214, "\u2581reinig": 8215, "\u2581syfer": 8216, "\u2581veronderstel": 8217, "\u2581verskille": 8218, "\u2581vertalings": 8219, "ible": 8220, "oth": 8221, "\u25811,000": 8222, "\u2581Herodes": 8223, "\u2581Ouer": 8224, "\u2581arrive": 8225, "\u2581cool": 8226, "\u2581effectively": 8227, "\u2581humbly": 8228, "\u2581imperfection": 8229, "\u2581onderdanig": 8230, "\u2581uitmaak": 8231, "\u2581vreugdevol": 8232, "\u2581vrywilligers": 8233, "boom": 8234, "gr": 8235, "nis": 8236, "punt": 8237, "\u2581Eendag": 8238, "\u2581figurative": 8239, "\u2581loose": 8240, "\u2581melding": 8241, "\u2581rewarded": 8242, "\u2581stukke": 8243, "\u2581wetlike": 8244, "gan": 8245, "help": 8246, "ology": 8247, "\u25811947": 8248, "\u2581Edom": 8249, "\u2581Notice": 8250, "\u2581Sentraal": 8251, "\u2581Sound": 8252, "\u2581Thanks": 8253, "\u2581Vee": 8254, "\u2581beheers": 8255, "\u2581conviction": 8256, "\u2581corner": 8257, "\u2581inge": 8258, "\u2581iniquity": 8259, "\u2581intieme": 8260, "\u2581mouse": 8261, "\u2581skrywers": 8262, "\u2581slaag": 8263, "\u2581temperatuur": 8264, "\u2581tendency": 8265, "\u2581vermeerdering": 8266, "\u2581vloek": 8267, "maker": 8268, "nde": 8269, "\u2581Act": 8270, "\u2581advanced": 8271, "\u2581challenging": 8272, "\u2581grows": 8273, "\u2581koningskap": 8274, "\u2581lowly": 8275, "\u2581obvious": 8276, "\u2581uitsonderlike": 8277, "12": 8278, "uch": 8279, "\u00e3o": 8280, "\u2581Certainly": 8281, "\u2581Franz": 8282, "\u2581Jah": 8283, "\u2581Reading": 8284, "\u2581asleep": 8285, "\u2581bydrae": 8286, "\u2581defend": 8287, "\u2581hall": 8288, "\u2581hosts": 8289, "\u2581im": 8290, "\u2581lovingly": 8291, "\u2581opgewonde": 8292, "\u2581relevant": 8293, "\u2581roads": 8294, "\u2581uitgeoefen": 8295, "ct": 8296, "wo": 8297, "\u2581Need": 8298, "\u2581boere": 8299, "\u2581falls": 8300, "\u2581fitting": 8301, "\u2581gewerp": 8302, "\u2581lawlessness": 8303, "\u2581maai": 8304, "\u2581neus": 8305, "\u2581paradysaarde": 8306, "\u2581regardless": 8307, "\u2581Pinkster": 8308, "\u2581globe": 8309, "\u2581illustrated": 8310, "\u2581increasingly": 8311, "\u2581loon": 8312, "\u2581neigings": 8313, "\u2581opgestel": 8314, "\u2581perfection": 8315, "\u2581preceding": 8316, "\u2581vandaan": 8317, "\u2581viering": 8318, "\u2581weeg": 8319, "lia": 8320, "sit": 8321, "\u2581Assyria": 8322, "\u2581Brasero": 8323, "\u2581Player": 8324, "\u2581loaded": 8325, "\u2581publicly": 8326, "\u2581resultaat": 8327, "\u2581teenage": 8328, "\u2581uitkom": 8329, "\u2581universele": 8330, "span": 8331, "\u2581Ephesus": 8332, "\u2581Kry": 8333, "\u2581Mor": 8334, "\u2581Pope": 8335, "\u2581Rio": 8336, "\u2581abroad": 8337, "\u2581benefited": 8338, "\u2581bewonder": 8339, "\u2581footnote": 8340, "\u2581marital": 8341, "\u2581oordra": 8342, "\u2581prente": 8343, "\u2581uniek": 8344, "\u2581waarby": 8345, "see": 8346, "\u2581Jood": 8347, "\u2581Saulus": 8348, "\u2581cars": 8349, "\u2581equals": 8350, "\u2581hopes": 8351, "\u2581ignored": 8352, "\u2581karakters": 8353, "\u2581prosperity": 8354, "\u2581refreshing": 8355, "\u2581rewarding": 8356, "\u2581swakheid": 8357, "\u2581terrein": 8358, "\u2581uiting": 8359, "\u2581weaknesses": 8360, "teer": 8361, "ye": 8362, "\u2581Max": 8363, "\u2581Video": 8364, "\u2581beweegredes": 8365, "\u2581defense": 8366, "\u2581fascinating": 8367, "\u2581gepreek": 8368, "\u2581gevangene": 8369, "\u2581gewoond": 8370, "\u2581godvresende": 8371, "\u2581kleredrag": 8372, "\u2581relate": 8373, "\u2581reside": 8374, "\u2581scattered": 8375, "\u2581shadow": 8376, "anse": 8377, "rit": 8378, "\u2581Haggai": 8379, "\u2581Index": 8380, "\u2581Tyndale": 8381, "\u2581Westerse": 8382, "\u2581buit": 8383, "\u2581judged": 8384, "\u2581kids": 8385, "\u2581login": 8386, "\u2581mainly": 8387, "\u2581omskep": 8388, "\u2581omvang": 8389, "\u2581plaag": 8390, "\u2581spesiaal": 8391, "ever": 8392, "\u2581Canaan": 8393, "\u2581Ever": 8394, "\u2581Kaliforni\u00eb": 8395, "\u2581Waarde": 8396, "\u2581beasts": 8397, "\u2581belangstellende": 8398, "\u2581endless": 8399, "\u2581examination": 8400, "\u2581kragte": 8401, "\u2581mnr": 8402, "\u2581transfusion": 8403, "\u2581upbuilding": 8404, "\u2581verower": 8405, "\u2581volbring": 8406, "\u2581voortduur": 8407, "\u2581www": 8408, "iah": 8409, "ise": 8410, "ization": 8411, "ria": 8412, "ship": 8413, "\u25812]": 8414, "\u2581Agab": 8415, "\u2581Egyptians": 8416, "\u2581Evidently": 8417, "\u2581Manasseh": 8418, "\u2581battery": 8419, "\u2581benodig": 8420, "\u2581eaten": 8421, "\u2581ferm": 8422, "\u2581ge\u00ebindig": 8423, "\u2581grimmigheid": 8424, "\u2581judgments": 8425, "\u2581uitgebreek": 8426, "\u2581weigh": 8427, "iel": 8428, "uff": 8429, "\u2581Meanwhile": 8430, "\u2581Supreme": 8431, "\u2581assosiasie": 8432, "\u2581crowds": 8433, "\u2581discussions": 8434, "\u2581eindelose": 8435, "\u2581gelaai": 8436, "\u2581immortal": 8437, "\u2581opwindende": 8438, "\u2581propaganda": 8439, "\u2581rendering": 8440, "\u2581strengthening": 8441, "\u2581verbrysel": 8442, "\u2581verwysing": 8443, "\u2581voleinding": 8444, "\u2581wonderdadige": 8445, "pt": 8446, "sien": 8447, "vorm": 8448, "\u2581Dat": 8449, "\u2581Haman": 8450, "\u2581Hard": 8451, "\u2581Location": 8452, "\u2581Pos": 8453, "\u2581Spiritual": 8454, "\u2581Unlike": 8455, "\u2581acquire": 8456, "\u2581celebration": 8457, "\u2581geregverdig": 8458, "\u2581jealousy": 8459, "\u2581limitations": 8460, "\u2581unrighteous": 8461, "\u2581Columbus": 8462, "\u2581Manasse": 8463, "\u2581Prayer": 8464, "\u2581VHJ": 8465, "\u2581aangewend": 8466, "\u2581droog": 8467, "\u2581oftewel": 8468, "\u2581saal": 8469, "\u2581thoroughly": 8470, "\u2581urges": 8471, "\u2581verwesenlik": 8472, "\u2581woude": 8473, "\u2581\u00b0": 8474, "cent": 8475, "\u2581Concerning": 8476, "\u2581Er": 8477, "\u2581Indiane": 8478, "\u2581Nothing": 8479, "\u2581agtergelaat": 8480, "\u2581damaged": 8481, "\u2581gemeenskaplike": 8482, "\u2581miss": 8483, "\u2581profit": 8484, "\u2581similarly": 8485, "ft": 8486, "\u2581Ancient": 8487, "\u2581Jersey": 8488, "\u2581Navorsers": 8489, "\u2581blocks": 8490, "\u2581crying": 8491, "\u2581entering": 8492, "\u2581gewen": 8493, "\u2581strewe": 8494, "\u2581weekly": 8495, "\u2581weggevoer": 8496, "\u2581wonderwerk": 8497, "ST": 8498, "ell": 8499, "port": 8500, "\u2581Globe": 8501, "\u2581Val": 8502, "\u2581accord": 8503, "\u2581konflik": 8504, "\u2581manskappe": 8505, "\u2581safely": 8506, "\u2581sole": 8507, "\u2581vereiste": 8508, "\u2581verwagting": 8509, "onder": 8510, "\u25812012": 8511, "\u2581Com": 8512, "\u2581Ju": 8513, "\u2581deadly": 8514, "\u2581instruments": 8515, "\u2581onderskraag": 8516, "\u2581pair": 8517, "\u2581verhoed": 8518, "eerde": 8519, "\u2581Command": 8520, "\u2581Ierland": 8521, "\u2581benadeel": 8522, "\u2581hieraan": 8523, "\u2581limits": 8524, "\u2581mount": 8525, "\u2581nogal": 8526, "\u2581vooraf": 8527, "\u2581Kal": 8528, "\u2581concept": 8529, "\u2581deeper": 8530, "\u2581enables": 8531, "\u2581geruim": 8532, "\u2581meerderheid": 8533, "\u2581onbekende": 8534, "\u2581permitted": 8535, "\u2581rescue": 8536, "\u2581rooms": 8537, "\"-": 8538, "krag": 8539, "\u2581BYBEL": 8540, "\u2581Kar": 8541, "\u2581bederf": 8542, "\u2581beproef": 8543, "\u2581compassionate": 8544, "\u2581declaring": 8545, "\u2581increases": 8546, "\u2581motives": 8547, "\u2581onge": 8548, "\u2581plugin": 8549, "\u2581pote": 8550, "\u2581reminds": 8551, "\u2581rising": 8552, "\u2581spaar": 8553, "his": 8554, "staan": 8555, "\u2581Ecuador": 8556, "\u2581Keuse": 8557, "\u2581demon": 8558, "\u2581dropped": 8559, "\u2581geskiedskrywer": 8560, "\u2581gevangenskap": 8561, "\u2581infant": 8562, "\u2581jaag": 8563, "\u2581krisis": 8564, "\u2581kwel": 8565, "\u2581metaal": 8566, "\u2581peers": 8567, "\u2581presents": 8568, "\u2581sharp": 8569, "\u2581ungodly": 8570, "\u2581wishes": 8571, "mag": 8572, "ras": 8573, "\u2581geluid": 8574, "\u2581getuieniswerk": 8575, "\u2581hartlik": 8576, "\u2581meek": 8577, "\u2581participate": 8578, "\u2581patiently": 8579, "\u2581pope": 8580, "\u2581recommended": 8581, "\u2581weakness": 8582, "daar": 8583, "\u258163": 8584, "\u2581Ann": 8585, "\u2581Numbers": 8586, "\u2581Protestantse": 8587, "\u2581aktiveer": 8588, "\u2581safeguard": 8589, "\u2581sites": 8590, "14": 8591, "iteit": 8592, "\u2581Bethlehem": 8593, "\u2581Committee": 8594, "\u2581Herstel": 8595, "\u2581Kliek": 8596, "\u2581Tessalonisense": 8597, "\u2581afspraak": 8598, "\u2581applies": 8599, "\u2581bekostig": 8600, "\u2581broad": 8601, "\u2581geselskap": 8602, "\u2581giant": 8603, "\u2581manage": 8604, "\u2581smaad": 8605, "\u2581toeriste": 8606, "\u2581veldbediening": 8607, "\u25810.": 8608, "\u2581Ahab": 8609, "\u2581Evangelie": 8610, "\u2581Export": 8611, "\u2581Kanadese": 8612, "\u2581Properties": 8613, "\u2581WAS": 8614, "\u2581fixed": 8615, "\u2581formaat": 8616, "\u2581geheilig": 8617, "\u2581hospitality": 8618, "\u2581incense": 8619, "\u2581outlook": 8620, "\u2581outomaties": 8621, "\u2581profound": 8622, "\u2581soektog": 8623, "\u2581vloer": 8624, "\u2581Sowjetunie": 8625, "\u2581forgiving": 8626, "\u2581ge\u00ebis": 8627, "\u2581humankind": 8628, "\u2581ideale": 8629, "\u2581kingdoms": 8630, "\u2581motion": 8631, "\u2581prize": 8632, "\u2581spoed": 8633, "\u2581tabak": 8634, "\u2581voorspoed": 8635, "\u2581witnessed": 8636, "\u2581$1": 8637, "\u2581bokke": 8638, "\u2581buig": 8639, "\u2581clay": 8640, "\u2581guided": 8641, "\u2581innige": 8642, "\u2581opposers": 8643, "Kom": 8644, "ez": 8645, "ink": 8646, "sha": 8647, "veld": 8648, "\u2581Vol": 8649, "\u2581afgode": 8650, "\u2581choices": 8651, "\u2581commented": 8652, "\u2581considerable": 8653, "\u2581snare": 8654, "\u2581uitspreek": 8655, "RA": 8656, "spel": 8657, "want": 8658, "\u2581Heart": 8659, "\u2581domestic": 8660, "\u2581errors": 8661, "\u2581ganse": 8662, "\u2581invalid": 8663, "\u2581listeners": 8664, "\u2581ontleed": 8665, "\u2581wearing": 8666, "DVD": 8667, "can": 8668, "\u2581Clear": 8669, "\u2581Food": 8670, "\u2581Leviticus": 8671, "\u2581Panel": 8672, "\u2581oppression": 8673, "\u2581spreading": 8674, "\u2581tragedie": 8675, "\u2581Ester": 8676, "\u2581Levitikus": 8677, "\u2581Vry": 8678, "\u2581adjust": 8679, "\u2581banned": 8680, "\u2581ergste": 8681, "\u2581exciting": 8682, "\u2581generaal": 8683, "\u2581humor": 8684, "\u2581nes": 8685, "\u2581oorblywende": 8686, "\u2581rebellious": 8687, "\u2581silence": 8688, "\u2581sudden": 8689, "ert": 8690, "sins": 8691, "\u258183": 8692, "\u2581Above": 8693, "\u2581Justice": 8694, "\u2581Ki": 8695, "\u2581Nommer": 8696, "\u2581gesins": 8697, "\u2581namely": 8698, "\u2581ordinary": 8699, "\u2581sigself": 8700, "\u2581steal": 8701, "leg": 8702, "\u258185": 8703, "\u2581Godsdiens": 8704, "\u2581Sk": 8705, "\u2581Universal": 8706, "\u2581bemoedig": 8707, "\u2581dogtertjie": 8708, "\u2581groet": 8709, "\u2581hierop": 8710, "\u2581kolom": 8711, "\u2581shaped": 8712, "\u2581tragedy": 8713, "\u2581vreemd": 8714, "uc": 8715, "\u2581Beteken": 8716, "\u2581Groep": 8717, "\u2581Vier": 8718, "\u2581begrafnis": 8719, "\u2581bors": 8720, "\u2581companies": 8721, "\u2581garment": 8722, "\u2581goewerneur": 8723, "\u2581inspiring": 8724, "\u2581kenmerke": 8725, "\u2581keyboard": 8726, "\u2581minor": 8727, "\u2581vergesel": 8728, "\u2581warnings": 8729, "pies": 8730, "verdraagsaamheid": 8731, "\u2581Celsius": 8732, "\u2581Evangelies": 8733, "\u2581Hiskia": 8734, "\u2581Victoria": 8735, "\u2581aktief": 8736, "\u2581comfortable": 8737, "\u2581curse": 8738, "\u2581illustrasies": 8739, "\u2581oxygen": 8740, "\u2581passasiers": 8741, "\u2581practiced": 8742, "\u2581privaat": 8743, "\u2581shine": 8744, "\u2581shot": 8745, "\u2581substance": 8746, "\u2581target": 8747, "\u2581tongues": 8748, "\u2581university": 8749, "\u25811946": 8750, "\u258158": 8751, "\u2581Betlehem": 8752, "\u2581Karen": 8753, "\u2581Religious": 8754, "\u2581chronic": 8755, "\u2581extraordinary": 8756, "\u2581judicial": 8757, "\u2581kulture": 8758, "\u2581medewerker": 8759, "\u2581roots": 8760, "\u2581soet": 8761, "\u2581sugar": 8762, "\u2581tradisie": 8763, "pers": 8764, "tus": 8765, "\u2581Council": 8766, "\u2581Pu": 8767, "\u2581Sanhedrin": 8768, "\u2581ate": 8769, "\u2581bevrees": 8770, "\u2581despair": 8771, "\u2581fuel": 8772, "\u2581klomp": 8773, "\u2581produk": 8774, "\u2581ride": 8775, "\u2581sleeping": 8776, "\u2581surprising": 8777, "\u2581winds": 8778, "pp": 8779, "pu": 8780, "rivier": 8781, "\u2581Gad": 8782, "\u2581Saturday": 8783, "\u2581beseer": 8784, "\u2581ease": 8785, "\u2581filosofie": 8786, "\u2581imprisoned": 8787, "\u2581nakom": 8788, "\u2581priority": 8789, "\u2581represents": 8790, "\u2581steen": 8791, "\u2581whenever": 8792, "grootte": 8793, "tz": 8794, "\u258173": 8795, "\u2581Anders": 8796, "\u2581Bediener": 8797, "\u2581Egiptiese": 8798, "\u2581Niks": 8799, "\u2581departed": 8800, "\u2581dik": 8801, "\u2581meantime": 8802, "\u2581passage": 8803, "\u2581players": 8804, "\u2581privileged": 8805, "\u2581risks": 8806, "\u2581suid": 8807, "\u2581thin": 8808, "\u2581Dokument": 8809, "\u2581Listen": 8810, "\u2581bekommer": 8811, "\u2581besoedel": 8812, "\u2581bore": 8813, "\u2581feared": 8814, "\u2581heelwat": 8815, "Australiese": 8816, "\u2581Creation": 8817, "\u2581Silas": 8818, "\u2581Vervang": 8819, "\u2581affects": 8820, "\u2581behoorlike": 8821, "\u2581blow": 8822, "\u2581disfellowshipp": 8823, "\u2581flower": 8824, "\u2581gedurig": 8825, "\u2581geneesmiddels": 8826, "\u2581huwelike": 8827, "\u2581improved": 8828, "\u2581lake": 8829, "\u2581mismoedig": 8830, "\u2581normally": 8831, "\u2581pour": 8832, "Now": 8833, "ano": 8834, "bome": 8835, "geld": 8836, "kind": 8837, "mal": 8838, "\u258132:": 8839, "\u2581SO": 8840, "\u2581apartment": 8841, "\u2581bedrywigheid": 8842, "\u2581discussing": 8843, "\u2581peer": 8844, "\u2581rid": 8845, "\u2581teenager": 8846, "\u2581urge": 8847, "\u2581versameling": 8848, "OU": 8849, "adres": 8850, "blad": 8851, "lek": 8852, "sonder": 8853, "\u258157": 8854, "\u2581Amen": 8855, "\u2581Efraim": 8856, "\u2581Nigeri\u00eb": 8857, "\u2581afval": 8858, "\u2581gewandel": 8859, "\u2581herbou": 8860, "\u2581koninkryke": 8861, "\u2581seuntjie": 8862, "\u2581sink": 8863, "\u2581volgorde": 8864, "ward": 8865, "\u2581Bad": 8866, "\u2581Dead": 8867, "\u2581Louis": 8868, "\u2581bears": 8869, "\u2581dig": 8870, "\u2581glorieryke": 8871, "\u2581library": 8872, "\u2581meestal": 8873, "\u2581originally": 8874, "\u2581paleis": 8875, "\u2581rekord": 8876, "\u2581stewig": 8877, "\u2581suurstof": 8878, "IE": 8879, "bil": 8880, "pel": 8881, "pon": 8882, "weer": 8883, "\u25811951": 8884, "\u2581Future": 8885, "\u2581Laag": 8886, "\u2581Vyf": 8887, "\u2581bewaak": 8888, "\u2581duty": 8889, "\u2581eerlike": 8890, "\u2581emergency": 8891, "\u2581mal": 8892, "\u2581ster": 8893, "\u2581suidelike": 8894, "\u2581tools": 8895, "\u2581tour": 8896, "\u2581wyd": 8897, "Q": 8898, "Waarom": 8899, "itz": 8900, "off": 8901, "\u25812)": 8902, "\u2581Answers": 8903, "\u2581Islands": 8904, "\u2581Personal": 8905, "\u2581accidents": 8906, "\u2581afgel\u00ea": 8907, "\u2581amounts": 8908, "\u2581costs": 8909, "\u2581gasvryheid": 8910, "\u2581geleef": 8911, "\u2581geplant": 8912, "\u2581gespesifiseer": 8913, "\u2581kindertjies": 8914, "\u2581maag": 8915, "\u2581mates": 8916, "\u2581memories": 8917, "\u2581onvolmaak": 8918, "\u2581tone": 8919, "other": 8920, "pad": 8921, "ther": 8922, "well": 8923, "\u2581Actually": 8924, "\u2581Ephraim": 8925, "\u2581blaas": 8926, "\u2581collection": 8927, "\u2581cycle": 8928, "\u2581destructive": 8929, "\u2581disappointed": 8930, "\u2581eed": 8931, "\u2581egpare": 8932, "\u2581extensive": 8933, "\u2581figures": 8934, "\u2581gryp": 8935, "\u2581modder": 8936, "\u2581poorte": 8937, "\u2581recreation": 8938, "\u2581sanctuary": 8939, "theid": 8940, "vel": 8941, "\u2581130": 8942, "\u258168": 8943, "\u2581Allerhoogste": 8944, "\u2581Gospels": 8945, "\u2581Madrid": 8946, "\u2581Marie": 8947, "\u2581Rock": 8948, "\u2581assume": 8949, "\u2581contacts": 8950, "\u2581destination": 8951, "\u2581dramatic": 8952, "\u2581inisiatief": 8953, "\u2581intelligente": 8954, "\u2581kontakte": 8955, "\u2581ontken": 8956, "\u2581skrifgeleerdes": 8957, "\u2581skrik": 8958, "\u2581statements": 8959, "ile": 8960, "\u00e1n": 8961, "\u2581Anti": 8962, "\u2581Du": 8963, "\u2581Eksodus": 8964, "\u2581Ezra": 8965, "\u2581Jos\u00e9": 8966, "\u2581Very": 8967, "\u2581discover": 8968, "\u2581kde": 8969, "\u2581spies": 8970, "\u2581vashou": 8971, "hand": 8972, "\u2581360": 8973, "\u2581Assiri\u00eb": 8974, "\u2581Judge": 8975, "\u2581Mass": 8976, "\u2581[3": 8977, "\u2581aanbreek": 8978, "\u2581acquainted": 8979, "\u2581boonop": 8980, "\u2581diepe": 8981, "\u2581inkom": 8982, "\u2581sover": 8983, "\u2581survivors": 8984, "\u2581teorie": 8985, "\u2581toegeskryf": 8986, "\u2581Bank": 8987, "\u2581DPI": 8988, "\u2581Fo": 8989, "\u2581Four": 8990, "\u2581Value": 8991, "\u2581\\": 8992, "\u2581aanstoot": 8993, "\u2581avoided": 8994, "\u2581bacteria": 8995, "\u2581landbou": 8996, "\u2581lifetime": 8997, "\u2581oldest": 8998, "\u2581r": 8999, "\u2581stored": 9000, "\u2581submit": 9001, "\u2581tomorrow": 9002, "\u2581vakansie": 9003, "\u2581voldoende": 9004, "IG": 9005, "era": 9006, "ire": 9007, "ologie": 9008, "\u25811944": 9009, "\u2581Esra": 9010, "\u2581Jew": 9011, "\u2581groente": 9012, "\u2581nice": 9013, "\u2581onderneem": 9014, "\u2581platform": 9015, "Here": 9016, "map": 9017, "there": 9018, "\u2581Afterward": 9019, "\u2581Against": 9020, "\u2581Cal": 9021, "\u2581JESUS": 9022, "\u2581dring": 9023, "\u2581dwase": 9024, "\u2581earthquakes": 9025, "\u2581fierce": 9026, "\u2581lente": 9027, "\u2581paths": 9028, "\u2581sleutelbord": 9029, "\u2581strongly": 9030, "\u2581washed": 9031, "\u2581wealthy": 9032, "dheid": 9033, "\u2581Glad": 9034, "\u2581Onlangse": 9035, "\u2581attempts": 9036, "\u2581choosing": 9037, "\u2581festival": 9038, "\u2581gevier": 9039, "\u2581klem": 9040, "\u2581obeying": 9041, "\u2581openly": 9042, "\u2581solank": 9043, "\u2581tower": 9044, "\u2581vertroud": 9045, "gas": 9046, "\u2581Duisend": 9047, "\u2581Pasga": 9048, "\u2581amazed": 9049, "\u2581bedrywig": 9050, "\u2581continuing": 9051, "\u2581ellende": 9052, "\u2581herdenking": 9053, "\u2581herinnering": 9054, "\u2581maintained": 9055, "\u2581noord": 9056, "\u2581reader": 9057, "\u2581rye": 9058, "\u2581vals": 9059, "\u2581verbonde": 9060, "\u2581winkel": 9061, "mor": 9062, "\u2581(12": 9063, "\u258140.": 9064, "\u258162": 9065, "\u2581Canadian": 9066, "\u2581desperate": 9067, "\u2581hill": 9068, "\u2581vriendin": 9069, "ua": 9070, "ula": 9071, "\u2581Albei": 9072, "\u2581Ohio": 9073, "\u2581Thailand": 9074, "\u2581Vrou": 9075, "\u2581apparent": 9076, "\u2581charged": 9077, "\u2581eagerly": 9078, "\u2581eerlikheid": 9079, "\u2581geringe": 9080, "\u2581mishandeling": 9081, "\u2581observing": 9082, "\u2581oorgegee": 9083, "\u2581trusting": 9084, "\u2581versadig": 9085, "On": 9086, "kus": 9087, "rum": 9088, "war": 9089, "\u2581Florida": 9090, "\u2581cutting": 9091, "\u2581dating": 9092, "\u2581experiencing": 9093, "\u2581expert": 9094, "\u2581geag": 9095, "\u2581getoets": 9096, "\u2581kilometers": 9097, "\u2581largely": 9098, "\u2581locations": 9099, "\u2581minded": 9100, "\u2581planning": 9101, "\u2581settle": 9102, "\u2581tereggestel": 9103, "ped": 9104, "tige": 9105, "tik": 9106, "\u25812006": 9107, "\u2581Assembly": 9108, "\u2581Had": 9109, "\u2581License": 9110, "\u2581cards": 9111, "\u2581desirable": 9112, "\u2581follows": 9113, "\u2581multi": 9114, "\u2581ooreenstem": 9115, "\u2581rooster": 9116, "\u2581volwassene": 9117, "\u2581vyftig": 9118, "kant": 9119, "mmer": 9120, "\u2581Ku": 9121, "\u2581Learning": 9122, "\u2581OM": 9123, "\u2581aansien": 9124, "\u2581besoeke": 9125, "\u2581breaking": 9126, "\u2581bug": 9127, "\u2581bymekaargekom": 9128, "\u2581declaration": 9129, "\u2581hieronder": 9130, "\u2581losprysoffer": 9131, "\u2581organizations": 9132, "\u2581regters": 9133, "\u2581sedertdien": 9134, "\u2581senses": 9135, "\u2581skaap": 9136, "\u2581uitmekaar": 9137, "\u2581vrag": 9138, "ERS": 9139, "lis": 9140, "ware": 9141, "\u2581Boek": 9142, "\u2581classes": 9143, "\u2581combined": 9144, "\u2581decade": 9145, "\u2581displaying": 9146, "\u2581eternity": 9147, "\u2581gesaai": 9148, "\u2581magnificent": 9149, "\u2581recognition": 9150, "\u2581terugkom": 9151, "\u2581tremendous": 9152, "\u2581versoening": 9153, "gu": 9154, "\u25811975": 9155, "\u2581Device": 9156, "\u2581Koninkryks": 9157, "\u2581Persian": 9158, "\u2581Windows": 9159, "\u2581breed": 9160, "\u2581discovery": 9161, "\u2581genader": 9162, "\u2581lacking": 9163, "\u2581predikings": 9164, "\u2581smile": 9165, "\u2581therein": 9166, "\u2581vessel": 9167, "\u2581vore": 9168, "uck": 9169, "\u2581#": 9170, "\u2581Insight": 9171, "\u2581Tell": 9172, "\u2581Vers": 9173, "\u2581confirmed": 9174, "\u2581crops": 9175, "\u2581effens": 9176, "\u2581inspan": 9177, "\u2581minuut": 9178, "\u2581owerstes": 9179, "\u2581peak": 9180, "\u2581voorraad": 9181, "arm": 9182, "klas": 9183, "\u2581Alaska": 9184, "\u2581Datum": 9185, "\u2581Format": 9186, "\u2581Josiah": 9187, "\u2581MA": 9188, "\u2581Mountain": 9189, "\u2581NAV": 9190, "\u2581Stelsel": 9191, "\u2581WRITER": 9192, "\u2581encounter": 9193, "\u2581environmental": 9194, "\u2581grace": 9195, "\u2581infection": 9196, "\u2581internal": 9197, "\u2581kap": 9198, "\u2581meneer": 9199, "\u2581oorlewing": 9200, "\u2581opvatting": 9201, "\u2581plesier": 9202, "\u2581starts": 9203, "\u2581ta": 9204, "\u2581uitgewis": 9205, "ions": 9206, "rin": 9207, "\u25811914,": 9208, "\u2581Auto": 9209, "\u2581Christenbroers": 9210, "\u2581Editor": 9211, "\u2581Nabal": 9212, "\u2581bevele": 9213, "\u2581cultures": 9214, "\u2581driven": 9215, "\u2581earnestly": 9216, "\u2581heuning": 9217, "\u2581honde": 9218, "\u2581informasie": 9219, "\u2581kopie": 9220, "\u2581overwhelming": 9221, "\u2581perfectly": 9222, "\u2581unexpected": 9223, "24": 9224, "laag": 9225, "\u2581103": 9226, "\u25811942": 9227, "\u258197": 9228, "\u2581House": 9229, "\u2581Netherlands": 9230, "\u2581Nigeria": 9231, "\u2581PIN": 9232, "\u2581Quebec": 9233, "\u2581alcoholic": 9234, "\u2581bekwaam": 9235, "\u2581deny": 9236, "\u2581ete": 9237, "\u2581georganiseer": 9238, "\u2581proclaimed": 9239, "\u2581rapid": 9240, "gebruik": 9241, "late": 9242, "more": 9243, "\u2581COVER": 9244, "\u2581Tan": 9245, "\u2581Test": 9246, "\u2581aangetrek": 9247, "\u2581coupon": 9248, "\u2581daarenteen": 9249, "\u2581draws": 9250, "\u2581fashion": 9251, "\u2581ge\u00efnstalleer": 9252, "\u2581haven": 9253, "\u2581opgedoen": 9254, "\u2581seemingly": 9255, "\u2581veertig": 9256, "An": 9257, "head": 9258, "ight": 9259, "venster": 9260, "\u25811953": 9261, "\u2581Foundation": 9262, "\u2581badly": 9263, "\u2581climb": 9264, "\u2581dop": 9265, "\u2581gasheer": 9266, "\u2581geduur": 9267, "\u2581governing": 9268, "\u2581kleintjies": 9269, "\u2581prospects": 9270, "\u2581wortel": 9271, "kar": 9272, "plan": 9273, "\u2581Frans": 9274, "\u2581Hannah": 9275, "\u2581Indiese": 9276, "\u2581PSALM": 9277, "\u2581Stad": 9278, "\u2581aangekondig": 9279, "\u2581dekade": 9280, "\u2581dogs": 9281, "\u2581entrance": 9282, "\u2581objective": 9283, "\u2581skoene": 9284, "\u2581weduwees": 9285, "back": 9286, "gue": 9287, "sing": 9288, "tis": 9289, "\u25811948": 9290, "\u25812483": 9291, "\u2581Bybellees": 9292, "\u2581DO": 9293, "\u2581Voorkeure": 9294, "\u2581afgesluit": 9295, "\u2581boks": 9296, "\u2581disorders": 9297, "\u2581ontbreek": 9298, "\u2581permanente": 9299, "\u2581pity": 9300, "\u2581ryklik": 9301, "\u2581shock": 9302, "\u2581swem": 9303, "\u2581talente": 9304, "\u2581teregwysing": 9305, "00": 9306, "15": 9307, "\u2581Author": 9308, "\u2581Bolivia": 9309, "\u2581Jude": 9310, "\u2581L\u00c3aer": 9311, "\u2581Zealand": 9312, "\u2581aanneemlik": 9313, "\u2581bestemming": 9314, "\u2581bykans": 9315, "\u2581groepie": 9316, "\u2581honey": 9317, "\u2581individu": 9318, "\u2581onderdane": 9319, "\u2581skok": 9320, "\u2581slim": 9321, "\u2581soldier": 9322, "IM": 9323, "Maar": 9324, "ose": 9325, "over": 9326, "tot": 9327, "\u2581Ch": 9328, "\u2581Zephaniah": 9329, "\u2581aangaan": 9330, "\u2581conversations": 9331, "\u2581enormous": 9332, "\u2581expectations": 9333, "\u2581officers": 9334, "\u2581oorbly": 9335, "\u2581rampspoed": 9336, "\u2581reminders": 9337, "\u2581thereby": 9338, "\u2581treur": 9339, "eu": 9340, "\u2581Details": 9341, "\u2581Lewe": 9342, "\u2581Mode": 9343, "\u2581duties": 9344, "\u2581massa": 9345, "\u2581paragraph": 9346, "\u2581plane": 9347, "\u2581prince": 9348, "\u2581prior": 9349, "\u2581reflects": 9350, "\u2581sacrificing": 9351, "\u2581sterkte": 9352, "has": 9353, "ira": 9354, "\u25811938": 9355, "\u2581Egipteland": 9356, "\u2581Maps": 9357, "\u2581Mc": 9358, "\u2581Praise": 9359, "\u2581Rose": 9360, "\u2581Sha": 9361, "\u2581adresboek": 9362, "\u2581barmhartig": 9363, "\u2581conducting": 9364, "\u2581masjien": 9365, "\u2581moeilikheid": 9366, "\u2581openbaring": 9367, "\u2581pit": 9368, "\u2581stranger": 9369, "\u2581versoeke": 9370, "groepe": 9371, "ich": 9372, "kos": 9373, "\u25811931": 9374, "\u2581Abigail": 9375, "\u2581Green": 9376, "\u2581Henog": 9377, "\u2581Pan": 9378, "\u2581Skriftuurlik": 9379, "\u2581Za": 9380, "\u2581bemoedigend": 9381, "\u2581carbon": 9382, "\u2581definitief": 9383, "\u2581duiwel": 9384, "\u2581fondament": 9385, "\u2581gegroei": 9386, "\u2581gelyke": 9387, "\u2581geskik": 9388, "\u2581kar": 9389, "\u2581le": 9390, "\u2581opskrif": 9391, "\u2581tragic": 9392, "ada": 9393, "bestuurder": 9394, "rt": 9395, "\u2581Athens": 9396, "\u2581Hoog": 9397, "\u2581Jonatan": 9398, "\u2581Nederland": 9399, "\u2581Smith": 9400, "\u2581attached": 9401, "\u2581expressing": 9402, "\u2581layer": 9403, "\u2581modus": 9404, "\u2581owerste": 9405, "\u2581racial": 9406, "\u2581ram": 9407, "\u2581receives": 9408, "\u2581sig": 9409, "\u2581skepsele": 9410, "\u2581uitgeroei": 9411, "\u2581weggaan": 9412, "erige": 9413, "\u00eda": 9414, "\u2581Lang": 9415, "\u2581Syria": 9416, "\u2581gesigte": 9417, "\u2581gevoeg": 9418, "\u2581pregnancy": 9419, "\u2581reasoned": 9420, "\u2581tydjie": 9421, "\u2581waaruit": 9422, "bes": 9423, "bre": 9424, "ious": 9425, "probleme": 9426, "\u258142.": 9427, "\u2581Elders": 9428, "\u2581Fahrenheit": 9429,
[...]
